<unk>	0
<s>	0
</s>	0
.	-3.52694
,	-3.60711
s	-3.66913
▁the	-3.69602
'	-3.8239
▁to	-4.06848
▁a	-4.24819
▁of	-4.24871
▁and	-4.3328
▁The	-4.53983
▁in	-4.6221
-	-4.77077
:	-4.92403
▁is	-5.03552
▁for	-5.12317
▁that	-5.2279
▁I	-5.23453
▁	-5.23591
▁To	-5.28337
▁on	-5.36526
▁"	-5.39646
▁A	-5.41061
t	-5.41919
▁you	-5.46564
▁it	-5.51246
▁'	-5.51555
▁In	-5.55407
?	-5.57381
▁are	-5.62357
▁with	-5.63587
▁be	-5.8289
▁(	-5.83106
▁Of	-5.83124
)	-5.87031
▁For	-5.89506
ing	-5.91436
▁have	-5.92878
▁at	-5.97035
▁was	-5.98553
▁And	-6.01354
’	-6.01738
▁we	-6.02708
▁as	-6.0306
▁Trump	-6.03861
▁It	-6.07174
▁from	-6.12362
▁not	-6.17074
▁your	-6.17306
▁Is	-6.19107
▁You	-6.2131
▁this	-6.22611
▁On	-6.24051
"	-6.25084
▁an	-6.25542
▁has	-6.25688
▁can	-6.27544
▁about	-6.31179
▁by	-6.32652
▁With	-6.32902
▁or	-6.37349
▁--	-6.38326
▁but	-6.3899
▁more	-6.39521
▁their	-6.42215
▁This	-6.43211
▁my	-6.4351
ed	-6.43819
▁New	-6.44838
▁will	-6.44865
▁our	-6.45249
▁out	-6.49121
▁one	-6.49511
▁his	-6.4992
."	-6.51958
▁How	-6.54034
▁all	-6.54759
re	-6.56363
▁who	-6.56425
▁they	-6.57998
▁We	-6.58258
▁What	-6.60211
▁Your	-6.6082
▁what	-6.64253
▁her	-6.68363
▁he	-6.70903
▁up	-6.71064
▁people	-6.71229
d	-6.72104
▁time	-6.74946
▁From	-6.76606
▁been	-6.80844
!	-6.83128
▁after	-6.83529
▁when	-6.8464
▁At	-6.85208
PHOTOS	-6.85853
▁do	-6.8704
▁like	-6.87631
▁But	-6.88136
▁new	-6.88211
▁just	-6.89588
▁That	-6.9227
S	-6.9286
▁over	-6.95271
▁than	-6.95871
▁said	-6.97432
▁Are	-6.97476
m	-6.97619
▁Be	-6.98177
▁As	-6.99719
▁how	-7.00888
▁some	-7.01519
▁About	-7.01993
▁so	-7.02092
▁After	-7.06197
▁Why	-7.06505
▁U	-7.07779
▁us	-7.09003
ve	-7.09361
▁“	-7.10312
▁me	-7.10368
▁Donald	-7.11196
▁first	-7.11914
▁into	-7.1259
▁there	-7.1349
▁were	-7.14104
▁Day	-7.14466
▁When	-7.14717
▁get	-7.15818
▁says	-7.16426
▁life	-7.16431
▁had	-7.16949
▁World	-7.18128
▁most	-7.18316
▁If	-7.20545
▁no	-7.21816
▁if	-7.22391
▁she	-7.23015
▁He	-7.23464
▁would	-7.23809
ly	-7.24006
▁make	-7.24276
I	-7.25106
▁My	-7.25544
,"	-7.26781
▁know	-7.27076
▁years	-7.2724
▁world	-7.28418
▁Can	-7.29772
▁them	-7.30073
▁Not	-7.32034
▁year	-7.32872
▁More	-7.33067
▁By	-7.3377
▁many	-7.34742
y	-7.35391
▁day	-7.37056
▁could	-7.37087
▁way	-7.37891
▁Here	-7.40571
▁One	-7.40766
▁other	-7.41275
▁say	-7.42288
▁don	-7.42777
▁two	-7.4311
▁its	-7.43769
▁Will	-7.43905
▁being	-7.44286
▁may	-7.44327
▁Who	-7.45022
e	-7.45607
▁His	-7.4682
▁now	-7.47234
▁An	-7.48481
▁10	-7.48822
▁want	-7.50003
▁week	-7.50484
▁Women	-7.51173
▁which	-7.51561
a	-7.5217
▁these	-7.52366
▁There	-7.52683
▁need	-7.53118
▁back	-7.53182
▁Her	-7.54078
▁only	-7.54352
▁Out	-7.54372
▁Do	-7.54509
The	-7.54782
▁Up	-7.54836
▁They	-7.56002
▁take	-7.56336
▁Over	-7.56421
▁also	-7.56768
▁much	-7.57402
▁All	-7.57561
▁even	-7.57855
▁5	-7.59645
ll	-7.60316
▁So	-7.61208
▁No	-7.61429
▁America	-7.62081
▁-	-7.62237
▁Best	-7.62522
▁love	-7.62819
▁think	-7.63094
er	-7.63347
▁help	-7.63432
▁Says	-7.6402
▁women	-7.65255
▁Have	-7.65359
▁Obama	-7.65599
▁House	-7.65689
VIDEO	-7.66515
▁good	-7.66684
▁last	-7.68844
▁should	-7.70153
▁People	-7.70782
▁Just	-7.71292
▁those	-7.71939
▁see	-7.71989
▁President	-7.72764
▁go	-7.73341
▁Make	-7.73551
▁American	-7.73627
▁work	-7.73915
▁off	-7.74591
▁best	-7.75009
▁still	-7.75138
▁children	-7.75446
▁because	-7.77096
▁down	-7.77407
▁She	-7.79037
▁home	-7.79128
▁through	-7.79241
▁before	-7.79558
▁Get	-7.80236
▁president	-7.80618
▁look	-7.815
▁Week	-7.81501
▁right	-7.82007
▁where	-7.82404
▁Like	-7.82816
▁York	-7.83311
▁Our	-7.83525
▁First	-7.83891
▁things	-7.84432
▁Most	-7.84865
...	-7.84921
▁made	-7.85003
▁Twitter	-7.8528
▁against	-7.85528
▁going	-7.85748
▁own	-7.85942
▁Don	-7.85994
▁Life	-7.86057
▁Clinton	-7.86645
▁These	-7.87091
▁Now	-7.87455
▁never	-7.87626
▁family	-7.87811
▁Has	-7.88033
▁really	-7.89627
▁GOP	-7.89886
▁White	-7.90414
▁long	-7.90437
▁health	-7.90754
▁too	-7.90801
▁Man	-7.911
▁any	-7.91912
▁little	-7.92933
▁something	-7.93104
▁England	-7.93714
▁around	-7.94018
▁every	-7.94079
▁Time	-7.94184
▁here	-7.945
▁him	-7.9566
th	-7.96803
▁Kids	-7.96984
▁find	-7.97744
▁Health	-7.98195
▁Love	-7.98218
▁well	-7.9869
▁Cup	-7.98847
▁Black	-7.99016
▁very	-7.99831
year	-8.00182
▁show	-8.00322
▁Should	-8.00875
▁&	-8.01277
▁while	-8.01598
▁change	-8.01869
▁May	-8.02176
▁Their	-8.02348
▁feel	-8.02432
▁country	-8.02566
▁HuffPost	-8.03689
▁better	-8.04072
▁While	-8.04292
▁come	-8.04312
▁Could	-8.04624
▁Year	-8.05202
▁few	-8.06034
▁Want	-8.06304
▁Was	-8.06534
▁Facebook	-8.06714
n	-8.07472
▁Ukraine	-8.07538
▁City	-8.08337
▁Show	-8.08598
old	-8.08702
▁during	-8.09621
▁days	-8.09949
▁Some	-8.10275
▁always	-8.10782
▁three	-8.11017
▁found	-8.111
▁why	-8.12744
▁Police	-8.13121
A	-8.13484
▁Home	-8.1361
▁Back	-8.13939
▁part	-8.1441
▁ever	-8.14811
▁might	-8.15156
▁kids	-8.15518
▁‘	-8.15588
▁great	-8.1652
in	-8.16878
▁Watch	-8.1697
▁between	-8.18017
▁UK	-8.18342
▁Americans	-8.18463
▁did	-8.18794
▁State	-8.18927
▁Hillary	-8.1911
▁man	-8.19248
▁Things	-8.20388
▁another	-8.20508
▁Ways	-8.20556
▁Need	-8.20736
▁since	-8.20832
▁state	-8.20869
▁next	-8.2089
▁food	-8.21007
▁thing	-8.21036
▁Bill	-8.21436
▁former	-8.21503
▁Know	-8.21603
▁sure	-8.23031
▁doesn	-8.23133
▁got	-8.23503
▁big	-8.23559
▁Than	-8.23611
▁Russia	-8.23663
▁United	-8.23904
▁end	-8.24076
▁3	-8.24125
▁Style	-8.24713
▁place	-8.2525
▁7	-8.25768
▁comes	-8.26275
▁Court	-8.26581
▁school	-8.27077
▁often	-8.27162
▁war	-8.27616
▁Wedding	-8.27907
▁told	-8.28698
▁then	-8.28823
▁win	-8.2892
▁am	-8.28995
We	-8.29387
▁6	-8.29488
▁Into	-8.29533
▁same	-8.2986
▁John	-8.30333
▁without	-8.30523
▁high	-8.30693
▁does	-8.30737
▁lot	-8.3104
o	-8.31555
▁child	-8.31613
▁past	-8.31843
▁Republican	-8.33211
▁both	-8.33259
▁government	-8.33443
▁become	-8.33625
▁Top	-8.33973
▁start	-8.34805
▁care	-8.34892
▁National	-8.35213
▁important	-8.35542
.”	-8.35657
r	-8.35746
es	-8.36246
▁face	-8.36608
▁Off	-8.36898
▁School	-8.37047
▁Food	-8.37067
▁away	-8.37753
▁set	-8.38066
▁again	-8.38121
▁News	-8.38189
▁Help	-8.38199
▁Good	-8.38396
▁hard	-8.38508
▁Look	-8.38528
▁each	-8.3854
▁Let	-8.38731
▁Take	-8.38803
▁news	-8.39259
▁Big	-8.39495
▁didn	-8.39653
▁TV	-8.39744
▁season	-8.39889
▁night	-8.39894
▁parents	-8.40003
▁US	-8.404
▁Family	-8.40409
▁Way	-8.40545
▁making	-8.40909
▁Video	-8.40934
▁give	-8.41513
▁use	-8.41794
▁keep	-8.41827
▁Gay	-8.42072
▁put	-8.42594
▁Even	-8.42703
▁BBC	-8.42982
▁live	-8.43102
▁Woman	-8.4315
▁men	-8.43421
▁getting	-8.43483
▁Two	-8.43688
▁Say	-8.43768
▁Me	-8.4377
It	-8.44499
▁Russian	-8.44559
▁enough	-8.44763
▁under	-8.44955
▁lives	-8.44978
▁must	-8.45049
▁Mom	-8.45166
▁isn	-8.45529
▁top	-8.45659
▁woman	-8.45711
▁Down	-8.4628
▁Or	-8.46537
▁Fashion	-8.46644
▁public	-8.4671
▁person	-8.46783
▁North	-8.46856
▁real	-8.4723
▁star	-8.47327
i	-8.47617
▁Being	-8.47812
▁2012	-8.48233
▁Republicans	-8.48532
▁police	-8.48584
▁city	-8.48657
▁different	-8.48753
▁Divorce	-8.48777
▁media	-8.48973
▁South	-8.49015
▁4	-8.49178
▁Friday	-8.49395
▁let	-8.49412
▁Against	-8.49623
al	-8.49687
▁2	-8.49773
▁Change	-8.50149
▁8	-8.50234
/	-8.50558
▁five	-8.50724
▁won	-8.51297
▁Go	-8.51315
▁story	-8.51353
▁Us	-8.51367
▁far	-8.51888
▁California	-8.52138
▁20	-8.52174
▁money	-8.52465
▁yourself	-8.52645
▁video	-8.52682
▁called	-8.52699
▁experience	-8.52906
▁believe	-8.52956
▁Baby	-8.53229
▁States	-8.53425
▁used	-8.53575
▁Last	-8.53806
▁least	-8.54181
▁Christmas	-8.54189
▁During	-8.54308
▁death	-8.54388
▁Before	-8.54552
▁young	-8.54932
▁thought	-8.54977
▁Study	-8.55143
▁living	-8.5536
▁Still	-8.55945
▁ago	-8.56234
▁check	-8.56588
▁Every	-8.56614
▁See	-8.56634
▁others	-8.56826
▁support	-8.56853
▁Children	-8.56976
▁moment	-8.57057
▁Real	-8.57114
▁today	-8.57394
▁social	-8.5826
▁Senate	-8.58272
▁League	-8.58585
”	-8.58606
▁million	-8.58845
▁campaign	-8.58874
and	-8.5908
▁Years	-8.59131
▁War	-8.59215
com	-8.5977
▁tell	-8.5986
▁second	-8.60027
▁took	-8.60564
▁Tips	-8.60683
▁Care	-8.61001
▁study	-8.61042
▁less	-8.61067
▁four	-8.61296
▁old	-8.61319
▁someone	-8.61918
▁Travel	-8.62668
▁having	-8.62743
▁China	-8.62746
on	-8.62751
▁2013	-8.62858
▁Really	-8.63289
▁Star	-8.63321
▁Democrats	-8.63517
▁yet	-8.63527
▁history	-8.63785
▁Men	-8.6385
▁future	-8.63981
▁Party	-8.63984
ers	-8.63988
▁doing	-8.63989
▁such	-8.64047
or	-8.64126
▁political	-8.64191
▁Death	-8.64219
▁Michael	-8.64449
▁group	-8.64464
▁left	-8.647
▁power	-8.64788
C	-8.64968
▁Sunday	-8.64983
▁months	-8.65026
▁Stop	-8.65102
▁stop	-8.65306
▁wedding	-8.65381
▁body	-8.65401
▁West	-8.65478
▁together	-8.65522
▁Check	-8.65524
up	-8.65846
▁James	-8.65927
▁Parents	-8.65961
▁mother	-8.6619
to	-8.66701
▁full	-8.66752
▁Mother	-8.66894
▁Right	-8.6691
▁across	-8.67086
▁easy	-8.67552
▁Super	-8.67685
▁O	-8.67932
▁ways	-8.67965
▁Many	-8.6831
▁taking	-8.68453
▁Because	-8.68597
▁party	-8.68643
▁Live	-8.68854
▁heart	-8.69098
▁makes	-8.69227
▁job	-8.69517
▁Too	-8.69545
▁London	-8.69602
▁actually	-8.69771
▁summer	-8.69827
▁already	-8.70036
▁Summer	-8.70109
▁Climate	-8.70326
▁Would	-8.70373
▁Paul	-8.70871
▁call	-8.71095
▁Marriage	-8.71293
▁Ever	-8.71313
▁friends	-8.71967
▁Cancer	-8.72027
▁Post	-8.72029
▁case	-8.72031
▁trying	-8.7219
▁Washington	-8.72309
▁Congress	-8.72508
▁recent	-8.72522
▁deal	-8.72657
▁whether	-8.72741
▁once	-8.7301
▁Instagram	-8.73064
▁percent	-8.73172
▁Great	-8.73205
▁team	-8.73242
▁month	-8.73325
▁12	-8.73398
▁Won	-8.7362
▁Better	-8.7362
,”	-8.73635
▁final	-8.7381
▁9	-8.73814
▁1	-8.73829
▁head	-8.74054
▁hit	-8.74156
▁Sanders	-8.74204
▁play	-8.749
▁behind	-8.74998
▁looking	-8.75048
▁Shows	-8.75415
▁Where	-8.75619
▁list	-8.75633
▁move	-8.7573
▁seen	-8.75907
▁business	-8.76157
▁self	-8.76172
▁D	-8.76286
▁Dead	-8.76433
▁Keep	-8.76443
▁pay	-8.76665
▁Anti	-8.76858
▁Supreme	-8.76932
▁Open	-8.76959
▁Never	-8.77038
▁everyone	-8.77248
▁Other	-8.77376
▁Photos	-8.77468
▁Former	-8.77722
▁election	-8.77725
l	-8.77743
▁Texas	-8.77772
▁2014	-8.77898
▁Work	-8.77912
▁Night	-8.77946
▁number	-8.77993
▁mind	-8.78032
▁Child	-8.78066
▁Democratic	-8.78223
▁favorite	-8.78414
▁S	-8.78442
▁working	-8.78468
▁everything	-8.78531
▁hope	-8.79221
▁film	-8.79596
▁Gets	-8.79666
▁Paris	-8.7967
▁means	-8.79891
Year	-8.79915
▁shows	-8.80012
▁community	-8.80062
▁matter	-8.80197
▁David	-8.80606
▁Report	-8.80734
PHOTO	-8.80992
▁human	-8.81289
▁fact	-8.81371
▁bad	-8.81418
▁series	-8.81466
▁black	-8.81558
▁question	-8.81744
?"	-8.818
▁Art	-8.81825
▁2016	-8.81865
▁asked	-8.8192
▁point	-8.82022
▁mean	-8.82124
▁Election	-8.82833
▁King	-8.82835
▁among	-8.82886
▁course	-8.82902
▁came	-8.82941
▁lead	-8.83009
▁kind	-8.83096
▁High	-8.83241
▁company	-8.8329
▁travel	-8.83297
▁game	-8.83312
▁killed	-8.83334
▁talk	-8.83359
▁Think	-8.83496
▁Pinterest	-8.83611
▁Florida	-8.83934
▁Today	-8.8406
▁T	-8.84084
▁side	-8.84158
▁small	-8.84371
▁cancer	-8.8451
▁law	-8.84564
▁Sleep	-8.84614
▁latest	-8.84834
▁Does	-8.8494
the	-8.85004
▁try	-8.85318
▁below	-8.85336
▁British	-8.85406
Old	-8.856
▁plan	-8.85991
▁Campaign	-8.86009
▁water	-8.86254
▁energy	-8.86389
▁Chris	-8.86465
▁Street	-8.86559
▁15	-8.86695
▁nothing	-8.86892
▁daughter	-8.87224
▁St	-8.8766
man	-8.87739
▁Getting	-8.87817
▁idea	-8.87871
▁decision	-8.87978
▁share	-8.883
▁attack	-8.88425
▁known	-8.89359
▁son	-8.89395
▁until	-8.89489
▁Finds	-8.89556
▁healthy	-8.9001
▁likely	-8.90028
▁Queen	-8.90077
▁run	-8.90224
▁sleep	-8.90501
▁C	-8.90535
▁age	-8.9063
▁Season	-8.90826
▁2022	-8.90857
▁Bad	-8.90941
▁seems	-8.90959
▁11	-8.90999
▁perfect	-8.91261
▁able	-8.91356
▁Red	-8.91501
▁University	-8.91553
▁host	-8.91695
▁Next	-8.92083
▁Kim	-8.92257
▁times	-8.92489
▁problem	-8.9255
▁baby	-8.92709
▁music	-8.92748
▁Little	-8.929
▁major	-8.93217
▁true	-8.93324
▁holiday	-8.9355
▁open	-8.93673
▁personal	-8.93801
▁died	-8.93823
▁College	-8.94034
▁relationship	-8.94184
▁Girl	-8.9421
▁including	-8.94303
▁late	-8.94621
▁Ryan	-8.94729
▁myself	-8.94827
▁wrong	-8.95094
▁Another	-8.95101
▁white	-8.95179
▁learn	-8.95215
▁early	-8.95457
▁France	-8.95724
▁Hollywood	-8.95916
▁Israel	-8.9592
▁Fight	-8.96002
▁Guide	-8.96088
▁Manchester	-8.96096
▁needs	-8.96346
▁Bernie	-8.96374
▁fear	-8.96427
k	-8.96435
▁almost	-8.96561
▁March	-8.9662
▁coming	-8.968
▁50	-8.97008
▁Read	-8.97181
▁short	-8.97181
▁Saturday	-8.97281
▁anything	-8.97465
▁Monday	-8.97559
▁went	-8.97648
▁Only	-8.97855
▁wanted	-8.97882
▁Biden	-8.97929
▁Kate	-8.97969
▁report	-8.9817
▁fall	-8.98254
▁French	-8.98299
▁hours	-8.98302
▁nation	-8.98391
▁record	-8.98645
▁leave	-8.98782
▁weekend	-8.98839
▁name	-8.98981
▁Calls	-8.99009
▁History	-8.99051
▁climate	-8.99053
▁Media	-8.99072
▁taken	-8.99082
▁rights	-8.99539
▁marriage	-8.99774
▁Prince	-8.99924
▁30	-8.9998
▁fashion	-9.00016
▁students	-9.0033
▁bring	-9.00348
▁Made	-9.00377
▁Makes	-9.00538
D	-9.00577
▁Joe	-9.00578
▁done	-9.00595
▁wants	-9.007
▁Game	-9.00798
▁line	-9.00877
▁Million	-9.0093
▁turn	-9.00983
▁Shooting	-9.01072
▁action	-9.01396
▁Wall	-9.0146
▁Got	-9.01505
▁lost	-9.01525
▁probably	-9.0171
▁Wants	-9.0177
▁100	-9.01978
▁End	-9.02017
▁San	-9.02028
▁six	-9.0206
▁recently	-9.02183
▁Fox	-9.02294
▁Photo	-9.02333
▁Holiday	-9.02497
▁started	-9.02603
▁fight	-9.03196
▁possible	-9.03257
▁Well	-9.03398
▁sense	-9.03418
▁risk	-9.03448
▁E	-9.03454
▁pretty	-9.03459
▁Face	-9.03494
▁attention	-9.03549
▁Tuesday	-9.03551
▁though	-9.03608
▁Story	-9.03652
▁Times	-9.03694
▁words	-9.03761
▁role	-9.03799
▁free	-9.03844
▁Sex	-9.03918
▁Recipes	-9.04021
You	-9.0408
▁Iran	-9.04101
▁Money	-9.0411
▁Dad	-9.04159
▁national	-9.0448
▁clear	-9.04485
▁sometimes	-9.04492
▁simple	-9.04505
▁Reasons	-9.04529
▁Him	-9.04554
▁B	-9.04581
▁system	-9.04603
▁Making	-9.04677
▁Own	-9.04746
▁couple	-9.04791
▁single	-9.04967
▁divorce	-9.0523
▁close	-9.05246
▁Part	-9.05288
▁Much	-9.05336
▁process	-9.0537
▁stress	-9.05417
▁Attack	-9.05498
▁fun	-9.05838
▁...	-9.06035
▁takes	-9.06059
▁Dress	-9.06093
▁Through	-9.06138
▁Deal	-9.06235
▁presidential	-9.06347
▁Doesn	-9.06378
▁Without	-9.06455
▁order	-9.06597
▁Under	-9.06688
▁Heart	-9.06725
time	-9.06771
▁Find	-9.06798
▁race	-9.06887
▁feeling	-9.06896
▁vote	-9.07034
▁Johnson	-9.07052
▁control	-9.07063
▁post	-9.07128
▁following	-9.07289
▁book	-9.07323
▁According	-9.07869
▁special	-9.07987
▁girl	-9.08042
▁Plan	-9.08042
▁front	-9.08179
▁Korea	-9.08341
▁happy	-9.08389
▁Son	-9.0839
▁Again	-9.08484
▁Did	-9.08601
▁issue	-9.08634
▁Beauty	-9.08706
▁Social	-9.08794
▁according	-9.0883
▁style	-9.08972
▁husband	-9.09026
▁whole	-9.09153
▁Music	-9.09368
▁LGBT	-9.09379
▁car	-9.09472
▁aren	-9.09704
c	-9.09732
▁questions	-9.09813
▁ourselves	-9.09819
▁Talk	-9.09841
▁seem	-9.09907
▁Rights	-9.10032
▁Power	-9.10087
▁Long	-9.10092
▁George	-9.10138
▁anyone	-9.10253
▁leader	-9.10312
▁Europe	-9.10546
▁Young	-9.10742
▁Morning	-9.10785
▁Business	-9.11048
▁ask	-9.1111
an	-9.11152
▁Whether	-9.11191
▁Give	-9.11222
▁Office	-9.11272
▁read	-9.11385
▁Gun	-9.11422
▁Call	-9.11573
▁understand	-9.11624
▁key	-9.11756
▁Awards	-9.11873
▁Dog	-9.119
▁Fall	-9.11936
▁cost	-9.1237
▁looks	-9.12421
▁July	-9.1249
▁reason	-9.12578
▁thinking	-9.12818
▁house	-9.12943
▁step	-9.12946
▁stay	-9.13399
▁Ex	-9.13415
▁families	-9.13434
▁create	-9.13534
▁leaders	-9.13675
▁friend	-9.13795
▁remember	-9.13843
▁biggest	-9.14099
▁J	-9.14164
▁eat	-9.1419
▁heard	-9.14225
▁Perfect	-9.14579
▁weeks	-9.14733
▁de	-9.14825
This	-9.14869
▁continue	-9.14971
▁F	-9.15018
▁research	-9.15287
▁event	-9.15434
ness	-9.1548
▁ready	-9.15498
▁especially	-9.15533
▁Justice	-9.15648
▁Living	-9.15652
▁stories	-9.15703
▁tax	-9.15711
▁sexual	-9.15743
▁Use	-9.15768
▁issues	-9.15777
▁Film	-9.15925
▁Three	-9.16081
▁Ban	-9.1611
▁Father	-9.16142
▁2023	-9.16178
▁Harry	-9.16237
▁weight	-9.16294
▁crisis	-9.16409
▁movie	-9.16463
▁several	-9.16514
▁given	-9.16583
▁Race	-9.16636
▁Mark	-9.16669
T	-9.16788
▁mom	-9.16835
▁online	-9.17132
▁office	-9.17269
▁morning	-9.1746
▁Tom	-9.17614
▁forward	-9.17619
▁else	-9.17747
▁Law	-9.17777
▁Secret	-9.17905
▁red	-9.17993
▁Save	-9.18103
▁half	-9.18137
▁bill	-9.18141
▁Spring	-9.18168
▁Tax	-9.18243
▁bit	-9.1826
▁Support	-9.18278
▁policy	-9.18316
▁claims	-9.18321
▁Its	-9.18331
▁Takes	-9.18441
▁break	-9.18468
▁common	-9.18477
▁Thanksgiving	-9.18554
▁Sexual	-9.18592
ic	-9.18617
en	-9.18648
▁Lost	-9.18674
▁fans	-9.18722
▁practice	-9.18777
▁court	-9.18813
▁wasn	-9.18842
▁Healthy	-9.1887
▁Scott	-9.18899
▁Looks	-9.19006
▁Daughter	-9.19038
▁art	-9.19097
▁Taylor	-9.19117
▁Halloween	-9.19235
▁13	-9.19249
▁reality	-9.19477
▁longer	-9.19515
▁Going	-9.19543
▁seven	-9.19549
▁violence	-9.19581
▁room	-9.19644
▁using	-9.19731
▁college	-9.19735
▁Kardashian	-9.19857
▁happen	-9.19981
▁actor	-9.20014
▁Since	-9.20048
▁cut	-9.20071
▁nearly	-9.20104
▁un	-9.20129
▁Meet	-9.20177
▁Australia	-9.2024
▁Free	-9.20335
▁ahead	-9.20469
▁themselves	-9.20613
▁Internet	-9.20733
▁gay	-9.20774
▁Happy	-9.2078
▁M	-9.21013
able	-9.21127
▁Africa	-9.21169
▁Brown	-9.21251
▁industry	-9.21317
▁culture	-9.21438
▁Jimmy	-9.21468
▁Win	-9.21536
▁singer	-9.21565
▁local	-9.21612
▁saying	-9.21755
▁along	-9.21935
▁hair	-9.22081
▁success	-9.22323
▁career	-9.22369
▁air	-9.22425
▁beautiful	-9.22433
▁Car	-9.2244
▁plans	-9.22441
▁trip	-9.22485
▁Isn	-9.22512
K	-9.22544
▁Around	-9.22581
▁G	-9.22606
▁Tumblr	-9.22611
▁Future	-9.22618
▁Thing	-9.22715
▁Dr	-9.22717
▁Weight	-9.22719
▁Movie	-9.22726
▁spend	-9.23062
▁Department	-9.23086
▁rest	-9.23272
▁felt	-9.23333
▁Putin	-9.23362
▁dead	-9.23449
▁opportunity	-9.23564
▁Security	-9.23808
▁father	-9.2397
▁Fire	-9.24018
▁Thursday	-9.24164
▁Everyone	-9.24212
▁victory	-9.24407
▁Found	-9.24417
▁stand	-9.24428
▁Bowl	-9.24434
▁shot	-9.24489
▁14	-9.2449
▁anti	-9.24814
▁light	-9.24906
▁Worst	-9.25164
▁members	-9.25302
▁Yes	-9.25487
▁finally	-9.25626
▁Ben	-9.25707
▁India	-9.2573
▁Test	-9.26177
▁near	-9.26381
▁Body	-9.26389
▁hear	-9.26853
▁Stephen	-9.2698
▁within	-9.27056
▁Had	-9.2708
▁Teen	-9.27081
▁Them	-9.27147
▁global	-9.27161
▁25	-9.27164
▁Apple	-9.2718
▁learned	-9.27193
▁Wednesday	-9.27223
▁focus	-9.27397
▁Vote	-9.27452
▁CEO	-9.27484
▁Email	-9.27589
▁Must	-9.27608
▁reach	-9.27623
▁Daily	-9.27662
▁Muslim	-9.27682
▁Old	-9.27722
▁beat	-9.27745
▁federal	-9.27846
▁Hair	-9.27847
▁Cruz	-9.2798
▁hold	-9.28043
▁Mike	-9.28219
▁Despite	-9.28225
▁rather	-9.28228
▁visit	-9.28299
▁Tweets	-9.28335
▁outside	-9.28448
▁photos	-9.2858
▁NFL	-9.28612
▁Team	-9.28667
▁Case	-9.28685
▁knew	-9.28726
est	-9.28727
▁hand	-9.28797
▁God	-9.28819
▁Co	-9.28848
▁Students	-9.28905
!"	-9.28964
▁military	-9.28993
▁Olympic	-9.29131
▁P	-9.292
▁fire	-9.29388
▁Public	-9.29406
▁impact	-9.2951
g	-9.29575
▁De	-9.29578
less	-9.29623
▁difficult	-9.29681
▁offer	-9.29699
▁simply	-9.30001
▁Letter	-9.30062
▁workers	-9.30214
▁goal	-9.30435
▁space	-9.30459
▁spent	-9.30514
▁loss	-9.30653
▁eating	-9.3072
▁Boy	-9.30762
▁third	-9.30807
▁watch	-9.30831
▁Debate	-9.30874
▁Turkey	-9.309
M	-9.30922
▁Rise	-9.31006
▁Reveals	-9.31053
▁Yet	-9.31479
▁Act	-9.3165
▁accused	-9.31697
▁officials	-9.31708
▁Girls	-9.31769
▁popular	-9.31802
▁April	-9.31817
▁truth	-9.3207
▁ISIS	-9.32076
▁Obamacare	-9.32078
▁Mexico	-9.32085
And	-9.32108
▁Tell	-9.3213
▁Behind	-9.32201
▁later	-9.32263
▁Un	-9.3233
▁shooting	-9.32363
▁co	-9.32465
▁running	-9.325
▁Didn	-9.32505
▁word	-9.32733
▁Group	-9.32819
▁European	-9.32865
▁quite	-9.32871
▁v	-9.32907
▁Might	-9.33052
▁Five	-9.33136
▁Weekend	-9.33285
R	-9.33297
▁Once	-9.33359
▁Actually	-9.33387
N	-9.33623
▁goes	-9.33638
▁giving	-9.33665
▁happened	-9.33686
▁thousands	-9.33833
▁ex	-9.33965
▁countries	-9.34035
▁Pay	-9.34225
▁2015	-9.34348
&	-9.34438
▁photo	-9.34467
▁wife	-9.34621
▁actress	-9.34687
▁disease	-9.34749
▁Judge	-9.34769
▁growing	-9.34783
▁present	-9.34819
▁information	-9.34841
▁education	-9.34962
▁Been	-9.34986
p	-9.34989
▁service	-9.3503
▁Ideas	-9.35117
▁held	-9.35158
▁Syria	-9.35233
▁Earth	-9.35261
▁low	-9.3535
▁released	-9.35355
▁Valentine	-9.35789
▁Country	-9.35798
▁tips	-9.3588
▁K	-9.36035
▁18	-9.361
▁instead	-9.36217
▁sex	-9.36396
▁Park	-9.36504
▁return	-9.36802
B	-9.36855
▁expected	-9.36859
▁Carolina	-9.36869
▁Winter	-9.36889
▁round	-9.36951
▁beauty	-9.37013
▁Eat	-9.37272
▁administration	-9.3728
▁Were	-9.37351
▁Days	-9.37438
▁inside	-9.37443
▁girls	-9.37628
▁Book	-9.37789
▁Williams	-9.37854
▁Smith	-9.37879
▁Elizabeth	-9.37971
▁International	-9.37971
▁Goes	-9.38026
b	-9.38029
▁serious	-9.38051
▁Water	-9.38084
▁level	-9.38193
▁results	-9.38195
▁chance	-9.38233
▁saw	-9.38386
▁wrote	-9.38397
▁East	-9.3847
▁rules	-9.38482
▁Risk	-9.38623
▁16	-9.38636
▁football	-9.38886
▁decades	-9.39027
▁alone	-9.391
▁announced	-9.39111
▁Festival	-9.39128
▁Killed	-9.39174
▁turned	-9.39215
▁Stay	-9.39272
▁cannot	-9.39451
▁powerful	-9.39584
▁Disney	-9.39646
▁strong	-9.39685
▁Rep	-9.39761
▁Inside	-9.39769
▁debate	-9.39853
▁Everything	-9.39956
▁40	-9.39959
▁Finally	-9.39981
▁Stress	-9.40075
▁financial	-9.40139
▁moments	-9.40173
▁security	-9.40224
▁re	-9.40406
▁21	-9.40517
▁companies	-9.40775
▁choice	-9.40832
▁Self	-9.40977
▁states	-9.40995
F	-9.41018
▁African	-9.41104
▁worth	-9.41134
▁Steve	-9.41149
▁became	-9.41173
▁truly	-9.41209
▁Oscar	-9.41268
▁Second	-9.41319
▁talking	-9.41412
▁Violence	-9.415
▁Hot	-9.41648
▁R	-9.41817
In	-9.41843
▁Bush	-9.41924
▁Crisis	-9.41927
▁Lives	-9.41955
▁Ad	-9.42019
▁Government	-9.42082
▁gets	-9.42321
▁answer	-9.42457
▁Michelle	-9.42497
▁decided	-9.42563
▁act	-9.42627
▁title	-9.42655
▁Re	-9.42663
▁Pope	-9.42675
▁needed	-9.4273
▁Martin	-9.4273
▁List	-9.42887
▁candidate	-9.4304
▁Google	-9.43113
▁Interview	-9.43155
▁Robert	-9.43165
▁daily	-9.43229
▁mental	-9.43312
▁FBI	-9.43381
▁Talks	-9.43383
▁challenge	-9.43454
▁stage	-9.43569
▁June	-9.43835
▁Director	-9.43918
▁problems	-9.44048
▁pain	-9.4407
▁Wrong	-9.44087
▁rise	-9.44091
▁director	-9.44163
▁Parenting	-9.44181
▁Then	-9.4422
▁town	-9.44325
▁Kelly	-9.44406
▁cause	-9.44428
▁Age	-9.44475
▁non	-9.4452
▁due	-9.44572
▁Green	-9.44799
▁Less	-9.44824
▁above	-9.44846
▁soon	-9.44858
▁response	-9.44871
▁Hotel	-9.45016
▁strike	-9.45117
▁message	-9.45159
▁Moms	-9.45162
▁Netflix	-9.45288
▁Those	-9.45301
▁L	-9.45452
▁Which	-9.45741
▁Wales	-9.45769
▁hot	-9.45941
▁Coming	-9.46055
▁PM	-9.46103
▁Jennifer	-9.46186
▁vs	-9.46209
▁celebrate	-9.46271
▁weather	-9.46364
▁Stars	-9.46443
▁Chicago	-9.46491
▁Los	-9.46548
▁changes	-9.46576
▁data	-9.46653
▁consider	-9.46658
▁calls	-9.467
▁save	-9.46783
▁Easy	-9.46797
▁Run	-9.4699
▁Maybe	-9.47005
▁dress	-9.47056
▁Air	-9.47136
▁Having	-9.47262
SNL	-9.47468
h	-9.47489
▁parent	-9.47687
▁Job	-9.47698
▁Human	-9.47773
▁Favorite	-9.4783
▁Education	-9.47839
▁legal	-9.47931
▁brought	-9.48007
u	-9.48047
▁medical	-9.48092
▁Kid	-9.48121
▁H	-9.48206
▁Student	-9.48245
▁Rock	-9.48295
▁Ireland	-9.48313
2	-9.48317
▁lose	-9.48393
▁Jones	-9.48474
▁Global	-9.48548
▁Science	-9.48637
American	-9.48706
▁general	-9.48708
▁investigation	-9.49057
P	-9.49111
▁Middle	-9.49237
▁Bank	-9.49248
▁gun	-9.49281
▁huge	-9.49339
▁walk	-9.49452
▁LGBTQ	-9.49462
▁positive	-9.49502
▁Federal	-9.49543
▁beyond	-9.49553
ie	-9.49581
▁meet	-9.49611
▁Try	-9.49619
▁Explain	-9.49695
▁Presidential	-9.49726
▁changed	-9.49941
▁potential	-9.50095
▁whose	-9.50122
▁Drug	-9.50307
▁dream	-9.50312
▁economic	-9.50336
▁Ted	-9.50359
▁Set	-9.50601
▁Union	-9.50737
▁Month	-9.5078
▁amazing	-9.50893
▁Lessons	-9.50925
▁Chelsea	-9.51112
▁minister	-9.51143
▁reported	-9.51169
▁despite	-9.51269
▁Instead	-9.51289
▁speak	-9.51291
▁loved	-9.51294
▁safe	-9.51349
▁17	-9.51407
▁Play	-9.51422
▁reportedly	-9.51497
▁Come	-9.51596
▁gave	-9.51765
▁dog	-9.51863
▁missing	-9.51939
▁Gives	-9.52022
▁Center	-9.52022
▁eyes	-9.52077
▁choose	-9.52134
▁Head	-9.52139
▁Questions	-9.52166
▁evidence	-9.52225
▁Saudi	-9.5223
▁events	-9.52265
el	-9.52282
▁Claims	-9.52311
▁road	-9.52348
▁oil	-9.52398
▁hospital	-9.52422
▁Sen	-9.52524
▁society	-9.52538
▁N	-9.52543
▁Away	-9.52647
▁happens	-9.52662
▁large	-9.52763
▁market	-9.52824
▁interview	-9.52839
▁Al	-9.52856
▁exactly	-9.52875
▁either	-9.53029
▁access	-9.53071
▁student	-9.53079
▁ban	-9.53105
ion	-9.53114
▁Each	-9.53197
▁married	-9.53198
▁emotional	-9.53291
▁journey	-9.53294
▁Between	-9.5335
▁touch	-9.5341
▁Single	-9.53664
▁advice	-9.53665
▁Chinese	-9.53683
▁certain	-9.53926
▁buy	-9.53998
Star	-9.54119
▁Angeles	-9.54319
If	-9.54369
▁Olympics	-9.54457
▁began	-9.54514
▁Same	-9.54536
le	-9.54555
▁couldn	-9.5459
▁Iraq	-9.54777
▁Major	-9.54812
▁Games	-9.54872
▁toward	-9.54917
▁Leave	-9.54942
▁planning	-9.54989
▁Gaza	-9.55017
▁Rules	-9.55132
▁Birthday	-9.55144
▁begin	-9.55257
▁Simple	-9.5529
▁official	-9.55354
▁Online	-9.55412
▁Speech	-9.55435
▁treatment	-9.55435
▁Eating	-9.55499
▁Yoga	-9.55637
▁economy	-9.55791
▁Colbert	-9.55799
▁Fear	-9.55949
▁Thousands	-9.55964
▁color	-9.56002
▁gone	-9.56103
▁abuse	-9.56158
▁Island	-9.56246
L	-9.56275
▁worst	-9.56302
▁met	-9.56379
▁deep	-9.5652
He	-9.56557
▁sign	-9.56582
▁tells	-9.56726
▁drug	-9.56744
▁patients	-9.56781
▁Britain	-9.56799
▁Space	-9.56808
▁gift	-9.56812
▁Control	-9.56816
▁Brain	-9.56851
▁claim	-9.5686
▁brain	-9.5692
▁international	-9.57055
▁Four	-9.57108
▁Late	-9.57337
▁enjoy	-9.57421
▁Liverpool	-9.57467
E	-9.57563
▁meeting	-9.57602
▁himself	-9.57629
▁Swift	-9.57634
▁2017	-9.57658
▁millions	-9.57804
▁Taking	-9.57808
▁Tour	-9.57851
▁However	-9.57871
▁Steps	-9.57957
▁sent	-9.58144
▁Avoid	-9.58156
▁protect	-9.5818
▁provide	-9.58184
▁hate	-9.58387
▁battle	-9.58418
▁continues	-9.58454
▁performance	-9.58525
▁attacks	-9.5861
▁Justin	-9.58611
▁Charles	-9.58683
▁Bring	-9.5871
▁reasons	-9.58717
▁Sometimes	-9.58743
▁Trans	-9.58816
▁Secretary	-9.58819
▁reports	-9.5882
▁test	-9.58918
▁current	-9.58924
▁winter	-9.59012
▁Very	-9.59079
▁boss	-9.59082
▁boy	-9.59102
▁spring	-9.59165
▁GPS	-9.59167
▁Welcome	-9.59268
▁form	-9.59269
▁Name	-9.59278
us	-9.5931
▁challenges	-9.59363
▁based	-9.59444
▁technology	-9.59507
▁19	-9.59534
▁expect	-9.59649
▁Ask	-9.59723
▁natural	-9.59807
▁HUFFPO	-9.5984
▁murder	-9.60004
▁certainly	-9.60088
▁stars	-9.60173
▁Advice	-9.60185
▁effort	-9.60196
▁Problem	-9.6027
▁Break	-9.60285
▁force	-9.60498
▁Put	-9.60503
▁Scotland	-9.60532
▁voters	-9.60591
▁wait	-9.60622
▁Cover	-9.60733
▁area	-9.60751
▁fast	-9.60757
▁Learn	-9.60808
▁wear	-9.60922
▁secret	-9.60936
▁female	-9.61083
▁Cost	-9.61093
▁Fans	-9.61142
▁Friends	-9.61153
What	-9.61217
▁fighting	-9.61217
day	-9.61233
▁created	-9.61269
▁Beautiful	-9.61363
▁Gift	-9.61383
▁rate	-9.61477
▁Grand	-9.61494
▁difference	-9.61521
▁players	-9.61606
▁interest	-9.61657
▁Start	-9.61708
▁staff	-9.61783
▁speech	-9.61943
▁comments	-9.61964
▁unique	-9.62032
▁upon	-9.62085
▁avoid	-9.62098
1	-9.62115
▁Chief	-9.62148
▁honor	-9.62196
▁class	-9.62245
▁Couple	-9.62428
▁Administration	-9.62457
▁Jr	-9.62495
is	-9.62515
▁Defend	-9.62578
▁Feel	-9.62592
▁playing	-9.62595
▁further	-9.62637
▁Jenner	-9.6282
▁safety	-9.62822
of	-9.62952
▁Germany	-9.63039
▁WATCH	-9.63048
▁Learned	-9.6333
▁places	-9.63332
▁Reportedly	-9.6336
▁surprise	-9.63414
▁Moment	-9.63706
▁Hurricane	-9.63748
▁minutes	-9.63818
▁hands	-9.63927
▁led	-9.6411
▁prices	-9.64197
▁dad	-9.64309
▁chief	-9.64314
▁entire	-9.64525
▁schools	-9.64755
▁cover	-9.64775
▁Model	-9.64791
▁January	-9.64797
▁movement	-9.64838
▁Series	-9.64838
▁November	-9.6497
▁Assault	-9.64984
▁phone	-9.65036
▁CNN	-9.65151
▁exercise	-9.65208
▁Golden	-9.65343
out	-9.65344
▁UN	-9.65364
▁Something	-9.65399
▁itself	-9.65539
▁Recipe	-9.65544
▁Christian	-9.65649
▁extra	-9.6569
▁cases	-9.65711
▁published	-9.65725
▁Covid	-9.659
▁price	-9.6592
▁realize	-9.65944
ation	-9.65964
▁hopes	-9.65999
▁DIY	-9.66063
▁program	-9.66315
▁Voters	-9.66329
▁Wars	-9.66354
▁match	-9.66378
▁Hit	-9.66429
▁Network	-9.6643
▁Any	-9.66607
G	-9.66664
▁Nothing	-9.66674
▁Governor	-9.66716
-19	-9.66766
▁La	-9.66775
▁judge	-9.66803
▁fresh	-9.66885
▁manager	-9.66891
▁Pro	-9.66905
▁follow	-9.67002
▁Key	-9.67015
▁Service	-9.67064
▁Shot	-9.67087
▁General	-9.67114
▁Road	-9.6712
▁Six	-9.67138
▁building	-9.6715
▁tried	-9.67175
▁Mental	-9.67177
▁allow	-9.67245
▁helped	-9.67265
ism	-9.67484
▁Political	-9.6749
▁Premier	-9.67532
▁Italy	-9.67541
▁NYC	-9.67546
▁peace	-9.67546
z	-9.67626
▁nominee	-9.67631
▁politics	-9.67718
▁Beach	-9.67834
My	-9.6785
▁facing	-9.67915
▁Visit	-9.67951
▁Record	-9.67959
▁Georgia	-9.68109
▁watching	-9.68138
▁Needs	-9.68176
▁Working	-9.68216
▁Mind	-9.68228
▁famous	-9.68238
▁lack	-9.6856
▁benefits	-9.68594
▁HIV	-9.68654
▁higher	-9.68655
▁secretary	-9.68658
▁view	-9.68696
▁kid	-9.68797
▁eight	-9.68866
▁Oscars	-9.68956
no	-9.68958
▁Move	-9.6896
▁ability	-9.69005
▁Special	-9.6901
▁wouldn	-9.69016
▁ideas	-9.69036
▁researchers	-9.6906
▁Sea	-9.69143
ity	-9.69287
▁Football	-9.69331
▁Far	-9.69366
▁Giving	-9.69435
▁Shares	-9.69456
▁Community	-9.69607
▁Using	-9.69627
▁Royal	-9.69634
▁conversation	-9.69733
▁Wins	-9.69814
▁born	-9.69906
▁cities	-9.6998
▁include	-9.70012
▁costs	-9.70072
▁model	-9.7011
▁becoming	-9.7017
▁Virginia	-9.70194
▁Sunak	-9.70368
▁Matter	-9.70376
▁calling	-9.70527
▁Military	-9.70559
▁Japan	-9.70564
▁p	-9.70679
▁address	-9.70686
▁shared	-9.70826
▁conflict	-9.70904
▁Meditation	-9.70931
▁Jeff	-9.70942
▁Canada	-9.70958
▁eye	-9.70969
▁W	-9.70971
▁Amazon	-9.71131
▁images	-9.71235
▁victims	-9.71343
▁Met	-9.71439
▁vacation	-9.71448
▁remain	-9.7148
▁Sweet	-9.71498
▁Artist	-9.7152
▁Transgender	-9.71526
▁Lady	-9.71541
▁maybe	-9.71587
ling	-9.71647
▁Church	-9.71687
▁Moore	-9.71721
▁sweet	-9.71723
▁Amazing	-9.71747
▁Powerful	-9.71768
▁Force	-9.71861
▁pressure	-9.71939
▁Hope	-9.72006
▁Adorable	-9.72101
▁Santa	-9.72123
▁justice	-9.72158
▁Weddings	-9.72184
▁Lee	-9.72188
▁groups	-9.72262
▁situation	-9.72318
▁spending	-9.72354
▁beginning	-9.72489
▁gold	-9.7251
▁involved	-9.72526
▁song	-9.72558
▁Hate	-9.72633
▁caught	-9.72682
▁rising	-9.727
▁wish	-9.72717
▁Queer	-9.72732
it	-9.72756
▁faces	-9.72866
▁Join	-9.72879
▁experts	-9.72946
▁received	-9.72978
▁private	-9.73018
▁skin	-9.73019
▁Common	-9.73162
▁Sarah	-9.73278
▁Jessica	-9.73282
▁wonder	-9.73285
▁Trailer	-9.73287
▁artist	-9.73323
▁trial	-9.73355
▁Looking	-9.73372
▁leadership	-9.73472
▁learning	-9.73483
▁helping	-9.73496
▁Celebrity	-9.73498
▁Israeli	-9.73554
▁efforts	-9.73581
▁Brazil	-9.73603
▁jobs	-9.73664
▁Hall	-9.7375
▁voice	-9.73752
▁project	-9.73765
▁birth	-9.73829
▁paid	-9.73922
▁Minister	-9.7395
O	-9.73977
ist	-9.7409
▁Trip	-9.74107
▁credit	-9.74163
▁goals	-9.74175
▁release	-9.74253
▁Company	-9.74264
▁Roundup	-9.74267
▁Officials	-9.74318
▁Dies	-9.74326
▁guy	-9.74352
▁hotel	-9.74354
▁strikes	-9.74447
▁COVID	-9.74466
▁result	-9.74504
▁quickly	-9.74512
▁Town	-9.74562
▁Dinner	-9.7458
▁site	-9.7475
▁Boston	-9.74865
▁fan	-9.74955
▁Senator	-9.74956
▁grow	-9.7503
▁Francisco	-9.75063
▁Latest	-9.75073
▁modern	-9.75083
▁however	-9.75111
▁Pick	-9.75139
▁Cops	-9.75149
▁defeat	-9.75233
▁leading	-9.75349
▁looked	-9.75356
▁middle	-9.75481
To	-9.75541
▁Become	-9.75777
▁foreign	-9.75851
▁Amid	-9.75875
▁Italian	-9.7588
▁Am	-9.75906
▁Create	-9.75957
▁amid	-9.75972
▁ground	-9.7608
do	-9.76135
Trump	-9.76143
No	-9.76209
▁True	-9.76212
be	-9.7645
▁Loss	-9.76452
▁Although	-9.76491
▁Tells	-9.76529
▁sit	-9.76686
▁Hard	-9.76702
▁Female	-9.76708
▁Sports	-9.76781
▁Princess	-9.76807
▁path	-9.76812
ies	-9.76819
▁dangerous	-9.76837
▁September	-9.76889
▁happiness	-9.76891
▁completely	-9.76964
▁search	-9.77073
▁seeing	-9.77131
▁Accused	-9.77137
▁Disease	-9.7726
▁Scientists	-9.77271
▁Leaders	-9.77361
▁arrested	-9.77371
There	-9.77445
▁article	-9.77452
▁Leader	-9.77485
te	-9.77498
▁Dream	-9.77508
▁Birth	-9.77612
▁Experts	-9.7763
▁William	-9.77653
▁Success	-9.77654
▁Wear	-9.77721
▁gender	-9.77722
▁relationships	-9.7773
▁greatest	-9.77754
▁Research	-9.77842
▁Challenge	-9.77921
▁Guy	-9.77923
▁forces	-9.78237
▁Message	-9.78307
▁Afghanistan	-9.7832
▁Biggest	-9.78357
▁Cut	-9.78413
▁pick	-9.7853
▁Dear	-9.78583
▁joy	-9.78621
▁finding	-9.78653
▁Line	-9.78713
▁products	-9.78714
▁birthday	-9.78742
▁raise	-9.78824
▁approach	-9.78857
▁Rubio	-9.78946
▁Cities	-9.78948
▁Energy	-9.78962
▁Running	-9.78966
▁Turn	-9.78975
▁opening	-9.78984
▁Vegas	-9.79004
▁build	-9.79033
▁earlier	-9.79152
▁Immigration	-9.79167
▁Perry	-9.79179
▁Magazine	-9.79181
▁Victims	-9.79288
▁Workers	-9.79362
▁store	-9.79492
▁perhaps	-9.79581
▁Ukrainian	-9.7959
▁Lead	-9.79685
▁guide	-9.79689
▁Battle	-9.79699
▁Attacks	-9.79808
▁largest	-9.79842
▁Syrian	-9.79854
▁Celebrate	-9.79883
▁Full	-9.79965
▁Reason	-9.80005
▁Together	-9.80007
▁YouTube	-9.80142
▁assault	-9.80255
▁Thanks	-9.80263
▁gives	-9.80314
▁Arrested	-9.80513
▁waiting	-9.80595
▁remains	-9.80627
▁October	-9.80632
▁dinner	-9.80683
▁prime	-9.80712
▁flight	-9.80718
▁Oil	-9.80752
▁gas	-9.80771
▁Papers	-9.80796
▁Mr	-9.80822
▁Place	-9.80846
▁moving	-9.80855
off	-9.80906
▁60	-9.81036
▁Nearly	-9.81104
▁forget	-9.81167
▁value	-9.81209
▁behavior	-9.81211
▁communities	-9.81262
▁Turns	-9.8128
▁County	-9.81282
▁Talking	-9.8141
▁Truth	-9.8144
▁Policy	-9.81478
▁Cat	-9.81489
▁Finding	-9.81521
▁piece	-9.81587
▁August	-9.81653
▁Ready	-9.81677
▁Francis	-9.8169
▁Least	-9.81698
▁senator	-9.81752
▁club	-9.81763
▁named	-9.81768
based	-9.81803
▁Beyond	-9.81919
▁Song	-9.82021
rs	-9.821
▁Spain	-9.82125
▁cool	-9.82218
▁Mayor	-9.82297
▁Past	-9.82314
▁Question	-9.82409
▁Small	-9.82516
▁Northern	-9.82552
▁Ohio	-9.82552
▁Harvey	-9.82559
▁Sam	-9.82579
▁Aren	-9.82579
▁prison	-9.82602
▁cold	-9.82752
▁nature	-9.82775
▁statement	-9.82881
▁worse	-9.82954
▁Action	-9.82976
▁increase	-9.82983
▁Stories	-9.82983
▁Enough	-9.8301
▁physical	-9.83142
▁Protest	-9.83186
▁easier	-9.832
▁usually	-9.83235
▁Parent	-9.83265
▁Abuse	-9.83281
▁Remember	-9.83366
▁changing	-9.8353
▁24	-9.8355
▁Sure	-9.83607
▁Buy	-9.83669
▁bills	-9.8367
▁Missing	-9.83685
▁Andrew	-9.83767
▁Step	-9.83786
▁Dating	-9.83862
▁haven	-9.83862
▁science	-9.83883
▁miss	-9.83899
▁Jon	-9.84
▁highlights	-9.84169
▁annual	-9.84238
▁talks	-9.84294
▁feels	-9.84304
▁Wife	-9.84361
▁sports	-9.84389
▁street	-9.84436
▁Foods	-9.84442
▁Kanye	-9.84532
▁Asian	-9.84664
▁sound	-9.84674
▁successful	-9.84686
▁wins	-9.84695
▁Barack	-9.84735
▁Response	-9.84738
▁hundreds	-9.84808
▁press	-9.84819
un	-9.84871
▁Medical	-9.84891
▁wearing	-9.84893
▁author	-9.84943
▁Honor	-9.84965
▁Warren	-9.84966
▁Labor	-9.84969
▁partner	-9.8497
▁quarter	-9.85005
▁Ice	-9.85044
▁Side	-9.85053
▁Jack	-9.85102
▁Review	-9.85117
▁Sign	-9.85135
▁starting	-9.85296
ur	-9.85326
▁homes	-9.85389
▁beach	-9.85408
▁experiences	-9.85494
▁century	-9.85505
▁Prison	-9.85533
▁Miss	-9.85563
▁Adam	-9.85736
▁Relationship	-9.85793
▁pictures	-9.858
ri	-9.85819
▁Color	-9.85836
▁stuff	-9.85886
▁adults	-9.86002
▁freedom	-9.86077
▁Killing	-9.86078
▁Budget	-9.86081
▁showed	-9.86188
▁Share	-9.86228
▁Press	-9.86415
▁Iowa	-9.86522
▁agree	-9.8654
▁Doing	-9.86579
▁Box	-9.86594
▁Linked	-9.86596
▁warm	-9.8663
▁Nations	-9.86648
▁Stewart	-9.86742
▁couples	-9.86812
▁OK	-9.86817
▁Comes	-9.8694
▁budget	-9.86988
▁billion	-9.86997
▁Fallon	-9.87015
na	-9.87086
▁semi	-9.87177
▁Stand	-9.87226
▁pre	-9.87287
▁table	-9.8734
▁field	-9.87347
▁classic	-9.87433
▁Planned	-9.87434
▁charged	-9.87537
Free	-9.87568
▁winner	-9.8769
▁Committee	-9.87875
▁executive	-9.87879
▁spot	-9.88009
▁Louis	-9.88046
▁nine	-9.88065
▁killing	-9.88067
▁Amy	-9.88093
▁super	-9.88093
▁yoga	-9.8811
▁Jay	-9.88153
▁complete	-9.88169
▁Order	-9.88197
▁winning	-9.88218
W	-9.88221
▁appeared	-9.88246
▁creative	-9.88271
▁die	-9.8833
▁fit	-9.88338
▁Families	-9.8834
▁available	-9.8834
▁Richard	-9.88341
▁add	-9.88475
▁awareness	-9.88604
▁thoughts	-9.88711
▁Hospital	-9.88806
▁version	-9.88891
▁dark	-9.88959
▁Anthony	-9.89029
▁crash	-9.89042
▁asking	-9.89067
▁Gov	-9.89075
▁Mary	-9.89086
▁similar	-9.89179
▁player	-9.89207
▁Matt	-9.89238
▁Kevin	-9.89252
▁Vacation	-9.89267
▁land	-9.89345
free	-9.89389
▁worked	-9.89461
▁brand	-9.89525
Reuters	-9.89646
▁pass	-9.89653
▁Zealand	-9.89715
▁December	-9.89721
▁Peace	-9.89729
▁nuclear	-9.89731
▁Almost	-9.89767
▁Couples	-9.89772
▁Gold	-9.89808
▁Trying	-9.89904
▁progress	-9.89916
▁Michigan	-9.89947
▁Moments	-9.89963
▁Yourself	-9.89975
▁majority	-9.89988
▁scores	-9.8999
▁threat	-9.89991
▁diet	-9.89993
▁scene	-9.89994
▁trust	-9.90002
▁officer	-9.90048
▁picture	-9.90114
▁Fun	-9.90179
▁Emma	-9.90181
▁Politics	-9.90186
▁Middleton	-9.90187
▁writing	-9.90221
▁Champions	-9.90261
▁planet	-9.90301
ne	-9.90399
▁affect	-9.90504
▁Words	-9.9051
▁Reality	-9.90682
▁growth	-9.90709
▁Sean	-9.90726
▁Role	-9.90734
▁Officer	-9.9077
▁steps	-9.90857
▁civil	-9.90874
▁Rishi	-9.90882
▁Airport	-9.90968
ta	-9.90976
▁Prime	-9.91273
▁Important	-9.9136
▁Islamic	-9.91381
▁amount	-9.91502
▁evening	-9.91543
▁Mean	-9.91588
▁Said	-9.91596
▁played	-9.91661
▁critical	-9.91782
ment	-9.91818
▁pop	-9.91863
▁rule	-9.91905
▁papers	-9.91951
▁choices	-9.91985
▁Worth	-9.92001
▁Ferguson	-9.9209
AP	-9.92242
▁inspired	-9.92253
▁join	-9.92277
▁drink	-9.92379
▁write	-9.92394
▁rates	-9.92397
▁Romney	-9.92548
▁Signs	-9.92624
▁Suggests	-9.92634
▁Fake	-9.92651
▁animal	-9.92662
▁options	-9.92668
▁paying	-9.92713
▁Museum	-9.92782
▁parenting	-9.92783
▁Pregnant	-9.92785
▁forced	-9.92835
▁knows	-9.92849
▁Follow	-9.92926
▁Fan	-9.92932
▁letter	-9.92945
▁plenty	-9.93018
ra	-9.93021
▁losing	-9.93037
▁tour	-9.9309
▁alive	-9.93173
▁feelings	-9.93254
▁Huffington	-9.93258
▁Vintage	-9.93258
▁normal	-9.93272
▁foods	-9.9331
▁sea	-9.93509
▁creating	-9.9351
▁Award	-9.93518
▁Cop	-9.93526
▁Someone	-9.93554
▁Light	-9.93569
▁Kill	-9.93603
▁Room	-9.93671
▁Project	-9.93688
▁historic	-9.93764
▁network	-9.93877
▁Train	-9.93999
▁Surprise	-9.94024
▁Though	-9.9404
▁candidates	-9.94051
▁particularly	-9.94055
▁Murder	-9.94079
▁green	-9.9416
▁older	-9.94164
▁member	-9.94175
▁II	-9.9419
ch	-9.94194
▁NBA	-9.94225
▁receive	-9.94247
▁Jersey	-9.94251
▁struggle	-9.94263
▁Sandy	-9.94267
▁quality	-9.94288
▁Championship	-9.94385
▁Bar	-9.94403
▁giant	-9.94412
▁generation	-9.94418
▁Animal	-9.94648
▁Pakistan	-9.94651
▁officers	-9.94679
▁worry	-9.94693
▁responsibility	-9.94717
▁shopping	-9.94958
▁Lose	-9.94962
▁Culture	-9.94979
▁Jewish	-9.94985
▁Official	-9.95072
▁attorney	-9.95152
▁Hawaii	-9.95197
▁main	-9.952
▁kitchen	-9.95201
▁Alabama	-9.95206
▁wine	-9.95235
▁doubt	-9.95294
▁bank	-9.95352
▁Hits	-9.95372
▁significant	-9.95438
▁appears	-9.95439
▁Thomas	-9.95454
▁Early	-9.95464
▁Both	-9.95465
▁Clean	-9.95473
▁Singer	-9.95473
▁putting	-9.95479
▁row	-9.95509
▁figure	-9.95549
▁$1	-9.95585
▁Host	-9.95654
▁Hill	-9.95661
▁slideshow	-9.95693
▁dies	-9.95697
at	-9.95817
▁meant	-9.95874
▁Indian	-9.9588
▁effect	-9.95912
▁Greece	-9.95939
▁prevent	-9.95979
▁Add	-9.96058
▁Friend	-9.9609
▁points	-9.96119
▁board	-9.96149
ton	-9.96151
▁controversial	-9.96198
▁definitely	-9.9621
▁Always	-9.96216
▁Protect	-9.96268
▁Peter	-9.96279
▁draw	-9.96284
▁failed	-9.96318
▁Researchers	-9.96348
ian	-9.96364
▁February	-9.96441
▁Stylelist	-9.96443
▁Pence	-9.96447
▁Probably	-9.96471
▁training	-9.96491
▁teach	-9.96539
▁Abortion	-9.96543
▁Believe	-9.96575
▁Diet	-9.96618
▁Jordan	-9.96684
▁anniversary	-9.96688
▁Married	-9.96715
▁Allegedly	-9.96732
▁suggests	-9.96735
▁serve	-9.96742
▁Protesters	-9.96795
▁improve	-9.96813
▁Muslims	-9.96973
▁ones	-9.96994
▁Short	-9.97006
▁Low	-9.97148
▁Among	-9.97184
▁Awesome	-9.97193
H	-9.97222
▁treat	-9.97268
▁works	-9.97272
▁center	-9.97282
▁track	-9.97303
▁push	-9.97354
▁opened	-9.97379
▁ice	-9.97416
▁hurt	-9.97437
▁average	-9.97442
▁chocolate	-9.97442
▁Fighting	-9.97456
▁actions	-9.97482
▁date	-9.977
▁guilty	-9.97705
▁Tim	-9.97738
▁Schools	-9.97832
ive	-9.97966
▁train	-9.97982
▁Racist	-9.97993
▁Dark	-9.98022
▁Wine	-9.98112
▁Davis	-9.9819
▁Parenthood	-9.98202
▁rich	-9.98204
▁turns	-9.98258
▁appear	-9.98274
one	-9.98279
▁games	-9.98308
▁Democrat	-9.98458
▁laws	-9.98466
▁doctor	-9.98482
▁Blue	-9.98486
▁Final	-9.9858
▁Club	-9.98605
▁term	-9.98708
▁Gender	-9.9873
▁holidays	-9.98771
▁becomes	-9.98784
▁trade	-9.9886
▁concerns	-9.98883
4	-9.98918
▁English	-9.98945
▁dating	-9.9895
▁clean	-9.98979
▁Date	-9.99084
▁Euro	-9.99103
▁capital	-9.99141
▁pro	-9.99161
▁blood	-9.99173
▁Eric	-9.992
▁bed	-9.99222
▁Husband	-9.99255
▁region	-9.99364
▁rare	-9.99377
▁storm	-9.99379
▁injured	-9.99475
▁shouldn	-9.99506
▁incident	-9.99508
▁Rape	-9.99674
▁leaving	-9.99715
▁Soul	-9.99754
▁designer	-9.99837
▁balance	-9.99865
▁imagine	-9.99865
▁Hundreds	-9.99873
▁allowed	-9.99935
▁coach	-9.99935
▁mass	-9.9994
▁Please	-9.99952
▁Ebola	-9.99981
▁heat	-10
▁keeping	-10.0003
▁Marco	-10.0003
▁Candidate	-10.0004
▁send	-10.0005
ry	-10.0014
final	-10.0018
▁coffee	-10.0023
▁revealed	-10.0034
▁bar	-10.0039
il	-10.0044
Game	-10.0047
▁Celebrities	-10.0049
▁struggling	-10.0049
▁Stone	-10.0052
▁charges	-10.0055
▁Makeup	-10.0066
▁caused	-10.0071
▁doctors	-10.0073
▁Happiness	-10.0076
▁respect	-10.0077
▁drive	-10.0079
▁Easter	-10.008
▁throughout	-10.008
▁Tribute	-10.0084
▁moms	-10.0086
▁hearing	-10.0087
ST	-10.0092
▁benefit	-10.0094
▁Arsenal	-10.0101
▁parts	-10.0104
▁Airlines	-10.0116
▁poor	-10.0117
▁turning	-10.0124
▁Boris	-10.0127
led	-10.0137
▁wake	-10.0155
▁areas	-10.0157
▁boys	-10.0172
▁Australian	-10.0172
▁male	-10.0182
▁Freedom	-10.0183
▁Thrones	-10.0187
▁happening	-10.0187
▁Storm	-10.0189
▁Attorney	-10.0191
▁decade	-10.0191
▁Reform	-10.0193
▁crowd	-10.0193
▁Actor	-10.0196
▁Slams	-10.0199
▁spirit	-10.0202
▁click	-10.0204
▁policies	-10.0205
▁Half	-10.0207
▁tough	-10.0209
▁character	-10.0212
▁fine	-10.0213
▁Nation	-10.0213
▁Pre	-10.0215
▁Oh	-10.022
term	-10.0231
▁dreams	-10.0232
▁Blame	-10.0246
▁position	-10.0247
▁reading	-10.0248
▁Teach	-10.0263
▁fully	-10.0269
Up	-10.0272
▁island	-10.0272
▁paper	-10.0272
▁Cold	-10.0273
▁included	-10.0274
▁Nick	-10.0284
▁Possible	-10.0285
▁Sue	-10.0295
▁champion	-10.0297
▁proud	-10.0302
▁1.	-10.0302
▁services	-10.0303
▁Ahead	-10.0308
▁Left	-10.0313
▁rock	-10.0325
▁governor	-10.0328
▁original	-10.0331
▁Places	-10.0333
▁Bob	-10.0337
▁considered	-10.0339
▁EU	-10.0345
▁broken	-10.0345
▁Rick	-10.0347
J	-10.0349
▁Beyonc	-10.0358
▁parties	-10.0368
▁discovered	-10.0374
▁passed	-10.0382
▁Q	-10.0387
▁conference	-10.0391
▁numbers	-10.0391
▁primary	-10.0392
▁Conservative	-10.0409
▁showing	-10.0409
▁aware	-10.0411
▁teachers	-10.0421
▁Mass	-10.0423
▁Weekly	-10.043
▁German	-10.0433
▁box	-10.044
▁Fast	-10.0445
▁Fat	-10.0449
▁Jobs	-10.0458
▁border	-10.0464
▁spoke	-10.0468
▁Jim	-10.0469
▁Jan	-10.0474
▁suspect	-10.0474
▁Coast	-10.0476
▁towards	-10.0482
▁Plans	-10.0484
▁USA	-10.0489
▁anxiety	-10.0499
▁Person	-10.0501
▁miles	-10.0507
▁whatever	-10.051
▁details	-10.051
▁recognize	-10.0513
▁Dogs	-10.0513
▁example	-10.0518
▁babies	-10.0526
▁filled	-10.0526
20	-10.0527
▁door	-10.054
▁Border	-10.0548
▁lower	-10.055
▁Die	-10.0553
▁Brooklyn	-10.0555
▁elections	-10.0556
▁professional	-10.0568
▁System	-10.0573
ce	-10.0575
▁Las	-10.0578
▁delicious	-10.058
▁Rachel	-10.058
▁greater	-10.0584
▁Secrets	-10.0585
▁Pounds	-10.0594
▁quick	-10.0596
ia	-10.0598
▁stopped	-10.0607
▁finds	-10.0613
▁Homeless	-10.0614
▁taste	-10.0615
▁Fair	-10.0629
▁Qatar	-10.063
▁Deadly	-10.0633
▁Already	-10.0634
▁employees	-10.0635
▁Flight	-10.0635
▁bodies	-10.0637
▁sun	-10.0645
▁understanding	-10.0649
▁crime	-10.066
▁type	-10.0661
▁Academy	-10.0662
▁Kimmel	-10.0663
▁Civil	-10.0663
▁Opens	-10.0671
▁Legal	-10.0685
▁religious	-10.0686
▁Jackson	-10.0691
▁Following	-10.0693
▁condition	-10.07
se	-10.0708
▁Financial	-10.071
▁victim	-10.0714
▁McDonald	-10.0717
▁Dance	-10.072
being	-10.0725
▁Sport	-10.0726
▁review	-10.073
▁decide	-10.0731
7	-10.0736
▁Near	-10.0738
▁Cool	-10.0739
▁environment	-10.0742
▁22	-10.0743
▁Colorado	-10.0745
▁Arizona	-10.0745
▁sitting	-10.0747
▁crazy	-10.0748
▁Idea	-10.0749
▁2011	-10.0755
▁fears	-10.0758
▁accept	-10.0758
▁straight	-10.0761
▁raised	-10.0763
▁particular	-10.0765
▁Depression	-10.0773
▁Miley	-10.0773
▁teacher	-10.0778
▁highest	-10.0779
▁Comey	-10.0783
▁hour	-10.0789
▁Rose	-10.0797
▁organization	-10.0798
▁Patrick	-10.08
▁connection	-10.08
▁Tory	-10.0801
▁Exercise	-10.0802
▁levels	-10.0804
▁negative	-10.0822
▁Local	-10.0823
like	-10.0829
▁Performance	-10.0829
▁Totally	-10.0836
▁Eve	-10.0845
▁Personal	-10.0853
▁routine	-10.0858
▁iPhone	-10.0859
▁closer	-10.0863
▁currently	-10.0868
▁gain	-10.087
▁wonderful	-10.088
▁V	-10.0881
▁traditional	-10.0884
▁Maher	-10.0885
▁Rally	-10.0885
▁Kitchen	-10.0885
▁language	-10.0887
▁effects	-10.089
▁catch	-10.0891
▁Memorial	-10.0894
▁POLL	-10.0896
▁interesting	-10.0899
▁books	-10.0901
▁Cast	-10.091
They	-10.0912
▁stunning	-10.0912
▁Used	-10.0915
▁Noah	-10.0917
▁telling	-10.0921
▁transgender	-10.0942
▁Jason	-10.0942
x	-10.0944
▁Pretty	-10.0951
▁Tweet	-10.0955
▁fair	-10.0961
▁Front	-10.0966
▁Babies	-10.0969
▁criminal	-10.0969
▁constantly	-10.0973
▁Wild	-10.0982
▁connected	-10.0983
▁explain	-10.0988
▁Return	-10.0988
▁meaning	-10.0996
▁Carpet	-10.0997
▁Probe	-10.1
▁album	-10.1004
LL	-10.1024
▁Moving	-10.1027
▁magazine	-10.1032
▁comedian	-10.1033
▁protest	-10.104
▁Doctors	-10.1046
▁Blood	-10.1053
▁trend	-10.1055
▁Defense	-10.1058
▁thanks	-10.1059
▁allegedly	-10.106
▁Click	-10.1062
▁cast	-10.1064
▁Hotels	-10.1081
▁band	-10.1083
▁written	-10.1087
▁development	-10.1088
ized	-10.1105
age	-10.1106
▁protests	-10.1106
▁decisions	-10.1109
▁allegations	-10.1112
▁drama	-10.1114
▁Chicken	-10.1114
▁increasingly	-10.1116
by	-10.1126
▁Player	-10.1127
▁Means	-10.113
▁ended	-10.1132
▁Voting	-10.1141
▁source	-10.1143
Black	-10.1145
▁loving	-10.115
▁Doctor	-10.1155
▁writer	-10.1155
▁Teacher	-10.1156
▁design	-10.1158
▁Store	-10.116
▁Funniest	-10.117
▁Miami	-10.1171
▁Design	-10.1172
▁adult	-10.1177
▁account	-10.1178
▁feet	-10.1178
▁Conversation	-10.1179
▁collection	-10.118
▁Lawsuit	-10.118
▁Mexican	-10.1182
la	-10.1187
▁moved	-10.1188
▁forever	-10.1191
▁individual	-10.1199
ful	-10.1206
▁Andy	-10.1209
▁discuss	-10.121
▁debt	-10.121
▁streets	-10.1211
▁purpose	-10.1211
▁Credit	-10.1211
▁Point	-10.1212
▁embrace	-10.1215
▁suffering	-10.1219
▁Suspect	-10.1222
▁23	-10.1223
▁Christie	-10.1228
▁Safety	-10.1229
▁busy	-10.1232
▁seemed	-10.1245
▁Growing	-10.1247
▁PHOTOS	-10.1248
▁Poll	-10.1248
▁supposed	-10.1252
▁Match	-10.1254
▁content	-10.1256
▁Alex	-10.1257
▁Third	-10.126
▁Close	-10.1265
▁soul	-10.1265
▁hits	-10.1265
▁Forget	-10.1265
▁Tech	-10.1266
▁skills	-10.1266
▁nice	-10.1278
▁effective	-10.1281
ro	-10.1284
▁built	-10.1287
▁Central	-10.1287
▁Pride	-10.1288
▁Sir	-10.1295
▁Plus	-10.1297
▁highly	-10.1302
ary	-10.1306
▁Meeting	-10.1307
5	-10.1313
▁Shop	-10.1317
▁El	-10.132
▁Suicide	-10.1321
▁Claim	-10.1328
▁listen	-10.1328
▁Craft	-10.1332
▁bringing	-10.1339
▁Puerto	-10.1344
▁Coffee	-10.1345
▁animals	-10.136
▁image	-10.136
▁citizens	-10.1363
▁realized	-10.1366
▁Evolution	-10.1374
▁Refugees	-10.1374
▁Lot	-10.138
▁launched	-10.1385
▁ride	-10.1388
▁population	-10.1389
8	-10.139
▁reduce	-10.1391
▁welcome	-10.1392
▁Emotional	-10.1399
▁terms	-10.1402
▁Stunning	-10.1404
▁Nuclear	-10.1405
▁Liz	-10.1406
▁Raise	-10.1408
▁park	-10.1411
▁residents	-10.1412
▁Vogue	-10.1438
▁promise	-10.1438
coming	-10.1439
▁deeply	-10.1452
▁Push	-10.1452
▁Offers	-10.1453
▁Trade	-10.1459
▁Industry	-10.1463
▁Cameron	-10.1463
▁Huge	-10.1465
▁Seth	-10.1469
▁Lawmakers	-10.1477
▁dance	-10.1481
▁Called	-10.1481
▁Workout	-10.1483
▁Voter	-10.1486
▁Roy	-10.1488
HuffPostStyle	-10.1492
▁ensure	-10.1494
How	-10.1502
▁Modern	-10.1507
▁Hold	-10.1507
▁ceremony	-10.1522
▁firm	-10.1534
▁Cake	-10.1541
as	-10.1543
▁blue	-10.1546
▁Safe	-10.1547
▁Cyrus	-10.1552
▁hasn	-10.1553
▁Helping	-10.1561
▁Proposal	-10.1573
▁subject	-10.1573
▁deaths	-10.1574
▁Different	-10.1576
▁Youth	-10.1582
▁Western	-10.1582
▁Anniversary	-10.1583
▁studies	-10.1583
▁spread	-10.1585
▁agency	-10.1586
▁Skin	-10.1587
▁Cuba	-10.1602
▁expert	-10.1602
line	-10.1605
▁Investigation	-10.1605
▁Hilarious	-10.1605
f	-10.1609
▁Orlando	-10.1613
▁opportunities	-10.1613
▁Marijuana	-10.1613
▁Weird	-10.1614
▁card	-10.1614
▁Southern	-10.1615
▁award	-10.1639
back	-10.1648
▁Teens	-10.165
▁totally	-10.1654
▁reform	-10.166
▁Cruise	-10.1666
▁wild	-10.1668
▁childhood	-10.1674
▁necessary	-10.1675
▁conditions	-10.1676
▁Land	-10.1677
▁meal	-10.1678
▁attempt	-10.1684
▁Release	-10.1686
▁offers	-10.1687
land	-10.1688
▁spiritual	-10.1699
▁Foreign	-10.1703
▁cake	-10.1703
▁television	-10.1704
▁FDA	-10.1705
▁Pregnancy	-10.1706
▁Across	-10.1707
▁charge	-10.1708
▁Thinks	-10.1711
▁brings	-10.1717
▁faced	-10.1721
▁restaurant	-10.1728
▁Treatment	-10.1729
▁Argentina	-10.1734
▁everywhere	-10.1735
▁wisdom	-10.1735
▁Uber	-10.1738
ish	-10.1741
em	-10.1742
▁lessons	-10.1747
▁reflect	-10.1747
co	-10.1754
▁individuals	-10.1755
▁faith	-10.1759
▁Autism	-10.1765
▁Companies	-10.1765
▁Seek	-10.1765
▁Graham	-10.1765
▁status	-10.1766
▁plane	-10.1767
▁Latino	-10.1769
▁refugees	-10.1771
▁Hamas	-10.178
▁failure	-10.1791
▁conservative	-10.1794
▁expensive	-10.1796
▁Data	-10.1796
▁warning	-10.1806
▁Gifts	-10.1807
▁broke	-10.181
▁jail	-10.181
▁extreme	-10.1821
▁Class	-10.1823
▁Issue	-10.1823
▁Arabia	-10.1824
▁habits	-10.1826
▁mothers	-10.1826
▁Valley	-10.1828
▁drugs	-10.1828
▁Jeb	-10.1828
▁seat	-10.1838
▁70	-10.1843
▁Outside	-10.1851
▁Board	-10.1851
▁Trial	-10.1855
▁strategy	-10.1857
▁Dan	-10.1861
▁Thank	-10.1868
▁items	-10.1871
▁Fix	-10.1877
Y	-10.1878
▁Holidays	-10.1884
▁thank	-10.1887
▁Harassment	-10.1888
▁Designer	-10.1891
▁Wish	-10.1895
▁Protests	-10.1906
U	-10.1906
▁seriously	-10.1907
▁owner	-10.1909
▁Supporters	-10.1913
▁Activists	-10.1915
▁2018	-10.1923
ter	-10.1924
▁Cute	-10.1927
▁Boys	-10.1935
▁yes	-10.1936
ar	-10.1945
▁leaves	-10.1945
▁Joy	-10.1948
▁Actress	-10.1949
▁Capitol	-10.1951
▁offered	-10.1959
That	-10.196
▁Note	-10.1972
▁Lawyer	-10.1981
▁Irish	-10.1982
▁episode	-10.1983
▁Throw	-10.1987
▁Non	-10.1988
Sex	-10.1988
▁Beer	-10.1993
▁Le	-10.1995
▁Pennsylvania	-10.2013
▁Technology	-10.2014
▁celebrity	-10.2014
▁Daniel	-10.2014
▁pandemic	-10.2015
▁signs	-10.2016
▁Uses	-10.2017
▁Issues	-10.2018
▁Rule	-10.2022
▁Korean	-10.2023
▁Anna	-10.2032
▁Cook	-10.2033
▁carpet	-10.2047
▁kept	-10.2048
▁wall	-10.2049
▁Ball	-10.205
▁Choice	-10.2051
▁tech	-10.2053
▁period	-10.2055
▁union	-10.2057
▁Likely	-10.2058
▁Rio	-10.2059
▁headlines	-10.2067
▁strength	-10.2074
▁Shopping	-10.2077
▁requires	-10.2078
▁Also	-10.2079
▁Walk	-10.208
▁holding	-10.2081
▁patient	-10.2082
▁f	-10.2091
▁Rob	-10.2103
▁injury	-10.2108
▁Houston	-10.2109
▁multiple	-10.2109
▁criticism	-10.211
▁Classic	-10.2111
▁sharing	-10.2114
▁Happened	-10.212
▁Scandal	-10.2121
▁Laura	-10.214
▁Repeal	-10.2141
▁challenging	-10.2141
▁EPA	-10.2142
▁driving	-10.2144
▁dogs	-10.2145
▁Camp	-10.2145
▁Plane	-10.2147
▁Canadian	-10.2148
▁sort	-10.2152
▁mark	-10.2165
▁Cooking	-10.2167
▁sad	-10.217
▁Equality	-10.2172
▁Nature	-10.2173
▁Lewis	-10.2173
▁Chocolate	-10.2173
▁Until	-10.2174
▁Breaking	-10.2174
▁fourth	-10.2189
▁seek	-10.2191
▁Names	-10.2194
▁Comments	-10.2195
▁Reporter	-10.2196
▁values	-10.2198
▁Announces	-10.2203
▁Primary	-10.2204
▁twice	-10.2205
▁immigration	-10.2206
▁Search	-10.2209
▁Faces	-10.2225
▁surprised	-10.2226
▁deserve	-10.2231
▁Shouldn	-10.2232
▁smart	-10.2234
▁Victoria	-10.2234
▁Alzheimer	-10.2236
ous	-10.2237
▁carry	-10.2243
▁Prove	-10.2244
▁Millions	-10.2245
▁brother	-10.2245
▁influence	-10.2261
▁massive	-10.2265
▁pair	-10.2266
▁Happens	-10.2266
▁illness	-10.2267
▁Z	-10.2268
▁Kentucky	-10.2268
▁Viral	-10.2268
▁insurance	-10.2269
▁Labour	-10.2269
▁stuck	-10.227
▁Pop	-10.2273
▁recipe	-10.2276
▁Boost	-10.2276
▁Toddler	-10.2278
▁Breast	-10.2278
▁upcoming	-10.2282
▁scientists	-10.2282
▁Later	-10.2284
▁era	-10.2285
▁Learning	-10.2286
▁escape	-10.2289
▁essential	-10.2295
▁authorities	-10.2301
▁aid	-10.2302
▁Dangerous	-10.2305
▁Walker	-10.2308
▁festival	-10.231
When	-10.2312
ty	-10.2317
▁folks	-10.2321
▁inner	-10.2325
▁per	-10.2326
▁Benefits	-10.2328
▁cream	-10.2329
ley	-10.2333
▁fail	-10.2335
▁supporters	-10.2335
▁added	-10.2337
▁Brexit	-10.2339
▁Sessions	-10.2339
ma	-10.234
▁Phone	-10.2345
▁Convention	-10.235
▁please	-10.2355
▁survey	-10.236
▁HILL	-10.2366
▁kill	-10.2367
▁Movement	-10.2367
▁willing	-10.2367
▁Breakfast	-10.2368
▁sick	-10.2369
▁200	-10.2379
▁Whole	-10.2379
ally	-10.2384
▁Teachers	-10.2392
▁walking	-10.2392
▁herself	-10.24
son	-10.2401
▁Sick	-10.2401
▁reveals	-10.2402
▁views	-10.241
▁Price	-10.2411
▁Warns	-10.2415
▁Trends	-10.2431
▁pregnant	-10.2431
▁Survey	-10.2431
▁knowing	-10.2431
▁Oregon	-10.2431
▁Broadway	-10.2435
▁mine	-10.244
▁Frank	-10.244
▁celebration	-10.2443
▁Billion	-10.245
▁recipes	-10.2457
▁Pain	-10.2458
▁fell	-10.2465
▁Crazy	-10.2474
▁opinion	-10.2476
▁website	-10.2476
▁lawyer	-10.2477
▁linked	-10.2477
▁concerned	-10.2479
9	-10.2494
▁fuel	-10.2494
▁Crash	-10.2495
▁Egypt	-10.2497
▁McConnell	-10.2497
▁NHS	-10.2498
▁taught	-10.2498
▁comedy	-10.2498
▁Stage	-10.2502
▁ring	-10.2504
▁absolutely	-10.2505
▁Table	-10.2507
▁lived	-10.2509
▁minute	-10.2515
▁Problems	-10.2515
▁tip	-10.2521
▁emotions	-10.2522
▁Ali	-10.2524
▁Album	-10.253
▁excited	-10.2531
▁Changed	-10.2534
▁Massive	-10.2534
▁Cause	-10.2535
▁Bay	-10.2541
▁Pet	-10.2543
▁slow	-10.2545
▁Greek	-10.2546
▁eBay	-10.2563
▁aged	-10.257
▁demand	-10.2571
▁Threat	-10.2578
▁sister	-10.2578
▁funding	-10.2579
▁basic	-10.258
▁youth	-10.2581
3	-10.2582
▁guys	-10.2584
▁names	-10.2589
▁Surprising	-10.259
▁speaking	-10.2591
▁anger	-10.2593
▁Wisconsin	-10.2596
▁Quiz	-10.2596
▁captain	-10.2597
▁seeking	-10.2597
▁Congressman	-10.2603
▁shift	-10.2605
▁Crime	-10.2607
▁2020	-10.2609
▁Hand	-10.2611
not	-10.2626
ting	-10.2629
▁Council	-10.263
▁comfortable	-10.2631
▁experienced	-10.2632
▁drinking	-10.2638
▁traveling	-10.2642
▁drop	-10.2652
▁joined	-10.2652
▁Russell	-10.2663
▁via	-10.267
▁Thought	-10.2673
▁double	-10.2673
▁Ring	-10.2678
▁Jail	-10.2683
▁Seen	-10.2684
▁previous	-10.269
▁legislation	-10.2697
▁clothes	-10.2698
▁fitness	-10.2699
long	-10.2699
▁Perhaps	-10.2699
▁racism	-10.2699
▁confirmed	-10.2705
▁described	-10.271
▁sport	-10.2712
▁Restaurant	-10.2715
▁solution	-10.2716
iest	-10.2716
▁Ultimate	-10.2726
▁Phil	-10.2729
▁achieve	-10.273
▁exciting	-10.2731
▁airport	-10.2751
▁artists	-10.2757
finals	-10.2758
▁View	-10.2759
▁posted	-10.276
▁Ten	-10.2766
▁familiar	-10.2766
▁incredible	-10.2771
▁matters	-10.2774
▁App	-10.2775
Z	-10.278
▁editor	-10.2785
▁size	-10.2791
▁Members	-10.2795
▁travelers	-10.2798
▁bigger	-10.28
▁Others	-10.2805
▁Building	-10.281
▁shop	-10.2816
▁27	-10.2819
▁Ed	-10.2822
▁note	-10.2828
▁regular	-10.2828
▁Rip	-10.283
▁signed	-10.2834
▁identity	-10.2835
▁fired	-10.2835
▁Army	-10.2836
▁heavy	-10.2837
▁Sale	-10.2841
▁Mistakes	-10.2843
▁Kills	-10.2847
▁teen	-10.2853
▁Taste	-10.2858
▁fix	-10.2866
▁total	-10.2868
▁NBC	-10.2868
▁Snow	-10.2868
▁invasion	-10.2868
▁Weather	-10.2869
STER	-10.287
▁customers	-10.2871
▁Movies	-10.2871
▁arrived	-10.2873
▁email	-10.2874
▁Affect	-10.2877
life	-10.2882
▁Drink	-10.2897
▁onto	-10.29
▁Word	-10.2901
▁intelligence	-10.2902
▁funny	-10.2904
▁Katy	-10.2906
▁Sugar	-10.2906
▁debut	-10.291
ier	-10.292
▁claimed	-10.2934
▁church	-10.2934
▁rapper	-10.2936
▁Rico	-10.2936
▁Wilson	-10.2937
▁Katie	-10.2937
▁Facts	-10.2944
▁Charged	-10.2945
▁begins	-10.2946
▁Leaves	-10.2947
▁Tony	-10.2949
▁Told	-10.2949
we	-10.2952
▁26	-10.2952
▁programs	-10.296
▁audience	-10.2961
ge	-10.2962
▁Losing	-10.2965
▁activity	-10.297
▁Medicine	-10.2971
▁emergency	-10.2971
▁Program	-10.2973
▁comfort	-10.2979
▁boost	-10.2981
▁90	-10.2986
▁breath	-10.2987
tic	-10.2994
▁guests	-10.2996
▁appearance	-10.2997
▁Journal	-10.2999
▁Few	-10.3001
▁throw	-10.3003
▁NASA	-10.3005
▁dramatic	-10.3005
▁Mueller	-10.3006
▁Truss	-10.3007
▁afraid	-10.3007
▁Reports	-10.3008
▁Jesus	-10.3009
Do	-10.3012
▁prepare	-10.302
▁2010	-10.3023
▁hotels	-10.3027
▁starts	-10.3033
▁Staff	-10.3034
▁sugar	-10.3035
▁afford	-10.3038
▁believed	-10.3041
▁cheese	-10.3041
▁abortion	-10.3042
All	-10.3043
▁comment	-10.3044
▁Eye	-10.3058
▁suggest	-10.3058
▁Breaks	-10.3059
▁rape	-10.3067
▁alleged	-10.307
▁wrap	-10.3074
▁Wimbledon	-10.3075
▁easily	-10.3075
per	-10.3076
▁Grace	-10.3076
▁makeup	-10.3077
▁impossible	-10.3078
▁Market	-10.3078
um	-10.3079
Not	-10.3081
▁sounds	-10.3086
!)	-10.3086
▁score	-10.3088
▁officially	-10.309
▁Dads	-10.309
▁focused	-10.3091
▁Guns	-10.3095
▁Reveal	-10.3095
▁honest	-10.3096
▁Poor	-10.31
▁Returns	-10.3105
▁dollars	-10.3105
▁Globes	-10.3106
▁cultural	-10.3109
▁complex	-10.3109
▁Weinstein	-10.311
▁Conference	-10.311
▁screen	-10.311
▁app	-10.3113
▁Helped	-10.3113
▁weapons	-10.3114
▁Seriously	-10.3119
w	-10.312
▁readers	-10.3125
▁admit	-10.3139
▁Drag	-10.3142
ever	-10.3145
▁coverage	-10.3146
▁lifestyle	-10.3147
▁Funny	-10.3147
▁Famous	-10.3148
▁Anyone	-10.3148
▁inspiration	-10.3148
▁watched	-10.3155
▁Sun	-10.3158
▁reached	-10.3158
▁Brand	-10.3162
▁deadly	-10.3166
▁display	-10.3169
▁driver	-10.3179
▁responsible	-10.3183
▁hoping	-10.3186
▁c	-10.3186
▁blame	-10.3201
▁damage	-10.3201
▁reveal	-10.3206
▁Imagine	-10.3208
▁beer	-10.3208
de	-10.321
▁digital	-10.321
▁Decision	-10.3213
▁gifts	-10.3217
▁Went	-10.3221
▁politicians	-10.3224
▁lines	-10.3224
▁Aid	-10.3228
▁teens	-10.3229
▁increased	-10.3235
▁snow	-10.3251
▁Executive	-10.3251
▁Lawrence	-10.3252
▁Affordable	-10.3252
▁Ellen	-10.3261
▁Palestinian	-10.3261
▁measure	-10.3273
▁Asks	-10.3275
▁shape	-10.3275
▁Popular	-10.3286
▁importance	-10.3287
▁Spanish	-10.3288
▁celebrities	-10.3288
▁Smart	-10.3294
▁shoes	-10.3297
▁answers	-10.33
▁fat	-10.3304
▁cuts	-10.331
▁income	-10.3317
go	-10.3322
▁tools	-10.3323
▁Percent	-10.3323
▁agreement	-10.3325
▁Tried	-10.3326
▁mission	-10.333
▁films	-10.3339
all	-10.334
nd	-10.3352
▁Target	-10.3354
▁plays	-10.3356
▁Trevor	-10.3358
▁activities	-10.3358
▁Mitt	-10.336
▁pull	-10.3362
▁corner	-10.3362
▁lies	-10.3368
▁feature	-10.3383
For	-10.3386
▁Alleged	-10.3389
▁Harris	-10.3394
▁Kansas	-10.3395
▁Planning	-10.3397
▁lawsuit	-10.3397
▁Catholic	-10.3397
▁Economic	-10.3398
▁immediately	-10.3399
▁leads	-10.3408
▁develop	-10.3416
▁Trust	-10.3418
▁24/7	-10.3431
▁Patients	-10.3431
▁announcement	-10.3431
▁walked	-10.3432
▁Scottish	-10.3432
▁Carson	-10.3433
▁Picture	-10.3434
▁task	-10.3434
▁planned	-10.3434
▁senior	-10.3435
▁Books	-10.3437
▁previously	-10.3438
▁Brings	-10.3459
▁Creative	-10.3468
▁Kind	-10.347
▁Incredible	-10.347
▁Changing	-10.348
▁lawmakers	-10.3481
winning	-10.3486
▁Spending	-10.3492
▁secure	-10.3494
▁sales	-10.3495
▁memory	-10.3504
elect	-10.3504
▁Fitness	-10.3505
▁raising	-10.3508
▁product	-10.3508
am	-10.3511
▁Soon	-10.3511
▁notice	-10.3518
▁standing	-10.3525
▁Planet	-10.3531
▁missed	-10.3533
▁Moon	-10.3536
▁Career	-10.3538
▁Economy	-10.354
▁Rihanna	-10.354
▁Habits	-10.3541
▁Access	-10.3544
▁Coach	-10.3548
▁breast	-10.3549
▁Band	-10.355
▁pounds	-10.355
ner	-10.3558
▁Rich	-10.3564
ted	-10.3568
▁FA	-10.357
▁active	-10.3572
▁Pull	-10.3572
▁Soccer	-10.3578
▁Rather	-10.3578
▁Engagement	-10.3578
▁tweet	-10.3578
▁passion	-10.3585
▁helps	-10.3585
▁Fit	-10.3587
▁bid	-10.359
▁clearly	-10.3606
▁Neil	-10.3608
▁Historic	-10.3613
ee	-10.3614
▁Japanese	-10.3614
▁vulnerable	-10.3615
▁apparently	-10.3617
▁Asia	-10.3617
▁journalist	-10.3621
▁Critics	-10.3633
▁Mar	-10.3645
▁Strong	-10.3645
▁Private	-10.3645
▁Pizza	-10.3649
▁Gaga	-10.3652
▁cash	-10.3652
▁Apparently	-10.3653
▁users	-10.3657
▁includes	-10.3658
▁meditation	-10.366
came	-10.3663
▁Warning	-10.3674
▁ten	-10.3674
▁corporate	-10.3688
▁Seattle	-10.3688
▁Racism	-10.369
▁split	-10.3691
▁Allow	-10.3698
▁Channel	-10.37
▁royal	-10.37
▁movies	-10.3706
▁cute	-10.3711
▁bright	-10.3712
▁e	-10.3715
▁Candidates	-10.3717
▁celebrated	-10.3718
▁10-	-10.3722
▁voting	-10.3725
▁documentary	-10.3725
▁fellow	-10.3726
▁Schumer	-10.3726
▁blog	-10.3728
▁Anderson	-10.3729
▁concern	-10.3731
▁equal	-10.3732
▁athletes	-10.3735
▁Wait	-10.3747
▁Indiana	-10.375
▁designed	-10.3751
▁Saying	-10.3762
▁Congressional	-10.3762
▁bottom	-10.3767
▁Inspired	-10.377
▁Longer	-10.378
▁tend	-10.3788
▁Players	-10.3795
▁memories	-10.38
▁Jerry	-10.38
▁Digital	-10.3802
▁Traveling	-10.3805
▁Beyonce	-10.3809
▁prepared	-10.3814
▁Episode	-10.3816
▁Send	-10.3818
▁setting	-10.3821
▁writes	-10.3821
▁Playing	-10.3831
▁Coronavirus	-10.3838
▁coronavirus	-10.3838
▁knowledge	-10.3838
▁activists	-10.3844
▁lucky	-10.3845
▁Prevent	-10.3848
▁domestic	-10.3849
▁Hours	-10.3851
▁31	-10.3851
▁disaster	-10.3854
▁Calling	-10.386
▁Van	-10.3867
▁Cream	-10.3869
▁equality	-10.3878
▁tribute	-10.389
▁cat	-10.3907
▁Legacy	-10.3913
▁Caribbean	-10.3914
▁favor	-10.3914
▁Journey	-10.3915
▁literally	-10.3917
▁Focus	-10.3919
▁Matters	-10.3922
▁Dozens	-10.3924
▁Mo	-10.3924
▁businesses	-10.3926
▁Matthew	-10.393
▁Driver	-10.3931
▁Orleans	-10.3952
▁Murray	-10.3952
▁Straight	-10.3954
▁proposed	-10.3956
▁voted	-10.3959
▁Fourth	-10.396
▁restaurants	-10.3961
▁Split	-10.3962
▁Gas	-10.3966
▁Chance	-10.3968
▁pulled	-10.3968
▁Beat	-10.3976
▁Cross	-10.3984
▁glass	-10.399
▁injuries	-10.399
▁angry	-10.399
▁celebrating	-10.399
▁Society	-10.399
▁Fraud	-10.3991
▁Launches	-10.3992
▁covered	-10.3992
▁Oliver	-10.3993
▁Experience	-10.3996
▁musical	-10.4001
▁warned	-10.4002
▁Consider	-10.4003
▁polls	-10.4006
▁hearts	-10.4013
Life	-10.4014
▁Listen	-10.4025
▁Fired	-10.4028
▁Prize	-10.4029
▁legacy	-10.4029
▁talked	-10.4029
▁iconic	-10.403
She	-10.4034
▁racist	-10.4034
▁desire	-10.4035
▁rain	-10.4045
▁perspective	-10.4047
▁Photographer	-10.4049
▁harder	-10.4064
▁tragedy	-10.4067
▁afternoon	-10.4068
▁mid	-10.4068
▁Victory	-10.407
▁suit	-10.4071
izing	-10.4074
▁exist	-10.4079
▁founder	-10.4085
▁Fail	-10.4087
▁treated	-10.4094
▁Veterans	-10.4095
▁Capture	-10.4098
▁shown	-10.4102
▁page	-10.4102
▁breakfast	-10.4106
▁surgery	-10.4106
▁depression	-10.4106
▁shut	-10.411
▁Debt	-10.4118
▁grown	-10.4118
▁sold	-10.4119
▁Minutes	-10.4127
▁Voice	-10.4129
▁bag	-10.4131
▁otherwise	-10.4146
▁dropped	-10.4146
▁anymore	-10.4146
▁express	-10.4151
▁hell	-10.4161
▁coast	-10.4166
▁Number	-10.4167
▁Legend	-10.4169
▁vision	-10.417
▁Meyers	-10.4174
▁Radio	-10.418
▁Hear	-10.418
▁consequences	-10.4182
▁breaking	-10.4183
▁McCain	-10.4183
▁Kristen	-10.4184
▁Himself	-10.4184
▁Enjoy	-10.4185
▁organizations	-10.4185
▁Comedy	-10.4185
▁served	-10.4205
▁Editor	-10.4206
▁trans	-10.4206
▁Brian	-10.4209
▁quiet	-10.4212
▁Yemen	-10.4213
▁floor	-10.4215
V	-10.4221
▁Epic	-10.4224
▁meat	-10.4225
▁Charlie	-10.4227
▁confidence	-10.4229
da	-10.4237
▁suffer	-10.4241
▁Ads	-10.4249
▁Hell	-10.425
▁Done	-10.4251
▁pieces	-10.4253
▁Inspiration	-10.4255
▁lesson	-10.4257
▁attend	-10.4258
▁Walmart	-10.4262
▁worried	-10.4264
▁Foundation	-10.4264
▁virus	-10.4265
▁Lake	-10.4265
▁defense	-10.4267
▁Bell	-10.4269
▁Bond	-10.427
▁Answer	-10.427
▁Strike	-10.4278
▁80	-10.4284
▁Faith	-10.4293
▁marks	-10.4297
▁Catch	-10.4298
▁false	-10.4298
▁features	-10.4301
▁District	-10.4302
▁Gap	-10.4303
▁diagnosed	-10.4306
▁Atlanta	-10.4306
▁Pink	-10.4309
▁arrest	-10.4324
▁Watching	-10.4329
▁ill	-10.4335
▁falling	-10.4337
▁Knew	-10.4341
▁Asked	-10.4342
▁River	-10.4342
▁fill	-10.4342
▁struck	-10.4344
▁explore	-10.4347
▁LA	-10.4347
▁b	-10.4352
▁engaged	-10.4355
▁limited	-10.4357
▁troops	-10.4366
▁Prepare	-10.4369
▁ruling	-10.437
Don	-10.437
▁messages	-10.4377
▁chicken	-10.4381
▁Cheese	-10.4382
▁tiny	-10.4385
▁Images	-10.4389
for	-10.4395
▁ongoing	-10.4397
▁tweeted	-10.4398
▁AIDS	-10.4401
▁bride	-10.4409
▁direction	-10.441
▁competition	-10.4411
▁Spirit	-10.4412
▁Celebrates	-10.4419
▁agenda	-10.4421
▁Mitch	-10.4422
▁Kong	-10.4422
▁younger	-10.4425
▁Dreams	-10.4429
▁Slow	-10.4431
▁Spend	-10.4434
▁35	-10.4435
▁affected	-10.445
▁Results	-10.4458
▁launch	-10.4459
▁Hampshire	-10.4461
▁Manhattan	-10.4461
▁Cosby	-10.4462
▁tired	-10.4465
▁risks	-10.4484
▁Carrie	-10.4491
▁Proves	-10.4495
▁tree	-10.4495
▁Commonwealth	-10.4501
▁Potter	-10.4502
▁internet	-10.4502
▁Steven	-10.4502
▁Gave	-10.4504
▁ends	-10.4509
▁taxes	-10.451
▁environmental	-10.4513
▁produce	-10.4518
▁ending	-10.4523
▁allows	-10.4525
▁Iranian	-10.4541
▁spark	-10.4541
▁Moscow	-10.4542
▁viral	-10.4542
▁Charges	-10.4559
▁trouble	-10.4562
▁mix	-10.4564
id	-10.4564
▁28	-10.4567
▁resources	-10.4568
▁MP	-10.4571
▁mostly	-10.4571
Love	-10.4581
▁9/11	-10.4583
▁Philadelphia	-10.4583
▁immigrants	-10.4587
▁Religious	-10.4589
▁Training	-10.4589
▁Mars	-10.4598
ad	-10.4604
▁prove	-10.4614
▁shock	-10.4616
▁Helps	-10.4616
▁activist	-10.4618
▁Controversial	-10.4623
▁footage	-10.4623
▁analysis	-10.4624
ha	-10.4627
▁Fame	-10.4629
▁everyday	-10.4631
ize	-10.4635
side	-10.4637
▁Bird	-10.4638
▁Card	-10.464
▁followed	-10.4658
▁Expect	-10.4662
▁Months	-10.4663
▁gym	-10.4664
▁Addiction	-10.4664
▁complicated	-10.4665
▁closed	-10.4672
▁d	-10.4674
▁core	-10.4676
▁returns	-10.4678
▁cooking	-10.4685
▁Spot	-10.4703
▁inflation	-10.4705
▁harassment	-10.4705
ak	-10.4705
▁Childhood	-10.4705
▁NRA	-10.4707
▁Trick	-10.4707
▁Heat	-10.4717
▁Forward	-10.4723
▁Improve	-10.473
▁Works	-10.4731
▁Brother	-10.4746
▁Threaten	-10.4746
▁Tea	-10.4746
▁Association	-10.4746
▁Rice	-10.4747
▁Chrissy	-10.4747
▁Max	-10.4747
▁Mindfulness	-10.4749
▁block	-10.4751
▁teaching	-10.4751
▁recovery	-10.4751
▁warns	-10.4753
▁Rescue	-10.4754
▁workout	-10.4754
▁MPs	-10.4755
▁videos	-10.4761
▁apart	-10.4764
me	-10.4764
▁harm	-10.4775
▁Keeping	-10.4775
▁Products	-10.4783
▁minds	-10.4784
▁awesome	-10.4788
▁camera	-10.4788
▁Anxiety	-10.4788
▁Baltimore	-10.4789
6	-10.479
▁romantic	-10.479
▁lie	-10.4792
▁Lower	-10.4796
▁range	-10.48
post	-10.4803
▁developed	-10.4808
▁Worse	-10.4808
▁critics	-10.4813
▁Magic	-10.4814
▁discover	-10.4821
▁trends	-10.4825
▁Marathon	-10.4826
▁Madrid	-10.4829
▁addiction	-10.4829
▁ABC	-10.4832
▁production	-10.4832
▁Drive	-10.4832
▁Ham	-10.4834
▁Wanted	-10.4841
▁Walking	-10.4841
▁Flu	-10.4847
▁Event	-10.4848
On	-10.4852
▁require	-10.4859
▁Shape	-10.4859
▁camp	-10.4862
So	-10.4868
▁Republic	-10.487
▁charity	-10.4871
▁ladies	-10.4871
▁Oklahoma	-10.4872
▁Refugee	-10.4875
▁Kerry	-10.4875
down	-10.4876
so	-10.4879
Be	-10.4882
▁Allegations	-10.4895
▁grand	-10.4899
Day	-10.4903
ga	-10.491
▁Bieber	-10.4913
▁central	-10.4913
▁funeral	-10.4913
▁Alexander	-10.4913
▁Susan	-10.4913
▁Zika	-10.4913
▁Chef	-10.4915
▁Gary	-10.4916
▁Trend	-10.4924
▁Moves	-10.4927
▁Wearing	-10.4929
▁buying	-10.4944
▁describe	-10.4944
▁symptoms	-10.4947
▁explains	-10.4949
▁Seven	-10.4954
▁earth	-10.4954
▁Missouri	-10.4955
▁Rugby	-10.4955
▁mood	-10.4955
▁Musk	-10.4955
▁Several	-10.4956
▁Cohen	-10.4956
▁Guilty	-10.4957
▁concept	-10.4958
▁weren	-10.4959
▁Meat	-10.4959
▁serving	-10.4965
▁findings	-10.4968
▁Marc	-10.4969
▁transition	-10.497
▁suffered	-10.4973
os	-10.4974
▁Bo	-10.4975
▁pages	-10.4977
▁separate	-10.4978
▁Anne	-10.4981
▁Banks	-10.4985
▁Double	-10.4991
▁silence	-10.4997
▁Sweden	-10.4997
▁Teigen	-10.4997
▁Choose	-10.4999
▁Happen	-10.5
▁lady	-10.5
▁Nail	-10.5001
▁target	-10.5003
▁pet	-10.5013
ler	-10.5014
▁Build	-10.5026
▁fish	-10.5034
▁DNC	-10.504
▁Olivia	-10.5041
▁Wake	-10.5044
▁racial	-10.5045
▁scandal	-10.5045
▁Grammy	-10.5046
▁overall	-10.5052
▁sat	-10.5056
▁Becomes	-10.5059
▁sell	-10.5065
Man	-10.5067
▁Alaska	-10.508
▁gorgeous	-10.5083
▁Collection	-10.5083
▁Turkish	-10.5084
▁scary	-10.5084
▁tradition	-10.5085
▁discrimination	-10.5087
▁offering	-10.5091
▁Sad	-10.5092
▁divorced	-10.5092
▁Survivors	-10.5099
Why	-10.5115
▁humans	-10.5117
▁strange	-10.5118
▁Bus	-10.512
▁surprising	-10.5121
▁survive	-10.5121
▁plant	-10.5122
▁Rare	-10.5124
▁Alan	-10.5126
▁Celebrating	-10.5126
▁Natural	-10.5126
▁Flint	-10.5126
▁Domestic	-10.5127
▁adventure	-10.5129
▁Afghan	-10.5134
▁fake	-10.5135
▁whom	-10.5136
▁Impact	-10.5136
▁Shoes	-10.5136
▁Author	-10.5141
▁Responds	-10.5146
▁handle	-10.516
▁actual	-10.5161
▁increasing	-10.5164
▁painful	-10.5167
▁Sudan	-10.5168
▁earthquake	-10.5168
▁Kyiv	-10.5169
▁Authorities	-10.5169
▁magic	-10.5169
▁Tottenham	-10.5169
▁Therapy	-10.5169
▁Charlottesville	-10.517
▁pregnancy	-10.517
▁beats	-10.5174
▁mistake	-10.5175
▁Demand	-10.5179
▁Greatest	-10.5179
▁Lesson	-10.5181
▁continued	-10.5183
med	-10.5186
▁Silence	-10.5194
▁arms	-10.5202
▁adorable	-10.5212
▁Hong	-10.5212
▁Mock	-10.5212
▁grew	-10.5213
▁wide	-10.5213
▁Britney	-10.5213
▁labor	-10.5214
▁Obesity	-10.5214
▁Vice	-10.5215
▁Rest	-10.5215
▁Tiny	-10.5216
▁nor	-10.5218
king	-10.5219
▁Dresses	-10.5222
▁Roger	-10.5222
▁sale	-10.524
▁Continues	-10.5244
▁wave	-10.5248
▁housing	-10.5255
▁Blake	-10.5256
▁Gorgeous	-10.5256
▁Kylie	-10.5257
▁Awareness	-10.5258
▁democracy	-10.5258
▁Bee	-10.5259
▁Ashes	-10.5259
▁Bear	-10.526
▁Block	-10.5266
▁Releases	-10.5267
▁related	-10.5268
▁Toward	-10.5282
▁closely	-10.5286
▁Per	-10.5286
▁disorder	-10.5293
▁rescue	-10.5297
▁Khan	-10.5299
▁committed	-10.5301
▁Carter	-10.5301
?”	-10.5302
▁standards	-10.5303
▁letting	-10.5305
▁returned	-10.5306
▁keeps	-10.5308
▁alternative	-10.5312
▁medicine	-10.5312
▁Tiger	-10.5314
▁Puts	-10.532
▁Pot	-10.5323
io	-10.5328
▁shares	-10.5331
▁Songs	-10.5333
▁sets	-10.534
right	-10.534
▁Insurance	-10.5343
▁presidency	-10.5343
▁Amendment	-10.5343
▁consumers	-10.5343
▁Bruce	-10.5343
friendly	-10.5344
▁grateful	-10.5345
▁Anything	-10.5347
▁Sorry	-10.5351
▁veteran	-10.5354
▁respond	-10.5355
▁commitment	-10.5356
▁protesters	-10.5356
▁appeal	-10.5357
▁Opening	-10.5372
Gay	-10.5379
▁fruit	-10.5381
men	-10.5381
▁contest	-10.5385
▁Rumors	-10.5386
▁waste	-10.5386
▁Nancy	-10.5387
▁Pressure	-10.5387
▁Clothing	-10.5388
▁Dallas	-10.5388
▁poverty	-10.5388
▁tackle	-10.5389
▁Raising	-10.539
▁Miller	-10.539
▁Fresh	-10.5391
▁Fears	-10.5394
▁figures	-10.5397
▁Spears	-10.5399
▁proposal	-10.54
▁guest	-10.54
▁Took	-10.5405
▁Deep	-10.5412
▁Lauren	-10.5418
▁Born	-10.5424
▁possibly	-10.5433
▁radio	-10.5441
▁advantage	-10.5446
▁targeted	-10.5447
▁legend	-10.5448
▁airline	-10.5453
▁Woods	-10.5462
▁engage	-10.5465
▁addition	-10.547
▁Vladimir	-10.5475
▁multi	-10.5476
▁Reading	-10.5476
▁Tries	-10.5476
▁aim	-10.5478
▁independent	-10.5478
▁Diversity	-10.5478
▁specific	-10.5482
▁destination	-10.5491
▁Expert	-10.5492
▁Victim	-10.5492
▁Bride	-10.5494
▁lots	-10.5495
▁clip	-10.5498
▁Senators	-10.55
▁developing	-10.5509
minute	-10.5511
▁lifetime	-10.5512
▁attacked	-10.5514
▁causes	-10.552
▁Flag	-10.5521
▁gotten	-10.5522
▁ball	-10.5522
▁terrible	-10.5524
▁calm	-10.5525
▁Jared	-10.5527
▁Positive	-10.5529
▁solutions	-10.554
▁basis	-10.5564
▁presence	-10.5564
▁Intelligence	-10.5565
▁Leadership	-10.5566
▁Arrest	-10.5568
▁Starbucks	-10.5568
▁ultimately	-10.5571
Late	-10.5574
sbrief	-10.5574
di	-10.5577
▁window	-10.5582
▁Drops	-10.5582
▁discussion	-10.5584
▁promises	-10.5586
▁progressive	-10.5587
Based	-10.5592
▁unexpected	-10.5603
▁obvious	-10.5604
▁Jeremy	-10.5609
▁Ashley	-10.561
▁Ivanka	-10.561
▁Emergency	-10.5611
▁Hero	-10.5612
▁clothing	-10.5612
▁Bannon	-10.5612
sex	-10.5614
▁Breastfeeding	-10.5615
▁directly	-10.5616
▁smile	-10.5617
▁Hunt	-10.5623
▁station	-10.5631
▁Generation	-10.5635
▁Arab	-10.5635
▁Bomb	-10.5637
▁lunch	-10.5652
▁VIDEO	-10.5657
▁healthier	-10.566
▁foot	-10.566
▁Laws	-10.5665
▁Cooper	-10.567
▁seconds	-10.5671
▁bus	-10.5672
▁Criminal	-10.5674
▁Eyes	-10.5675
▁platform	-10.5676
▁Giant	-10.5677
▁Writer	-10.5677
▁Scene	-10.5678
▁boat	-10.5689
▁songs	-10.5693
▁mistakes	-10.5693
▁ultimate	-10.5695
▁brilliant	-10.5695
▁usual	-10.5699
▁Taught	-10.57
▁denied	-10.57
▁Baldwin	-10.57
▁Conway	-10.57
▁Duke	-10.57
▁NOT	-10.5701
▁option	-10.5702
ah	-10.5703
▁cross	-10.5705
▁Cuts	-10.5706
ated	-10.5708
▁Sales	-10.5716
▁nomination	-10.5722
▁Immigrants	-10.573
▁bars	-10.5734
▁weird	-10.5742
▁Tonight	-10.5744
▁Countries	-10.5746
▁Lisa	-10.5746
▁expectations	-10.5746
▁Larry	-10.5747
▁unusual	-10.5748
▁Paid	-10.5751
▁Details	-10.5752
▁sides	-10.5753
▁strain	-10.5758
▁Ray	-10.5769
▁replace	-10.5779
▁Killer	-10.5781
▁facts	-10.5784
▁Forever	-10.5785
▁speaks	-10.5786
▁striking	-10.5791
▁Meghan	-10.5791
▁Gray	-10.5793
ol	-10.5794
▁Alone	-10.5796
▁Myths	-10.5798
▁cutting	-10.5798
▁ease	-10.5799
▁colleagues	-10.5806
▁Often	-10.5816
▁Practice	-10.5817
▁concert	-10.5817
▁Disorder	-10.5817
▁mountain	-10.5827
▁kick	-10.5827
Or	-10.5829
▁violent	-10.5836
▁courage	-10.5837
▁Adele	-10.5837
▁vice	-10.5838
▁Creating	-10.5838
▁Bridge	-10.5843
▁crimes	-10.5845
▁Animals	-10.5852
▁count	-10.5859
▁Praise	-10.586
▁Address	-10.5864
▁Waiting	-10.5871
ate	-10.5875
▁Speak	-10.588
▁Myanmar	-10.5884
▁penalty	-10.5884
▁HBO	-10.5884
▁Utah	-10.5885
▁Drugs	-10.5886
▁Horror	-10.5886
▁chances	-10.5888
▁issued	-10.5891
▁poll	-10.5897
▁tears	-10.5898
▁3-	-10.59
▁manage	-10.5902
ho	-10.5904
▁Higher	-10.5911
▁reaction	-10.5911
▁2008	-10.5913
▁scale	-10.5919
▁listening	-10.5928
▁Samantha	-10.593
▁Syndrome	-10.593
▁Concert	-10.5931
▁Palace	-10.5931
▁TSA	-10.5932
▁limit	-10.5933
▁sight	-10.5943
▁suggested	-10.5951
▁Thoughts	-10.5958
▁Drop	-10.5962
▁reminder	-10.5963
▁$2	-10.5964
▁appreciate	-10.5965
▁considering	-10.5966
UPDATE	-10.5969
▁Cheap	-10.5974
▁Louisiana	-10.5977
▁ancient	-10.5977
▁Netanyahu	-10.5977
▁Course	-10.5977
▁Johnny	-10.5978
▁Agency	-10.5979
▁chaos	-10.5979
▁pushing	-10.598
▁CIA	-10.5982
▁guns	-10.5983
▁Jean	-10.5985
▁plus	-10.599
ial	-10.5994
▁premiere	-10.5995
▁wind	-10.6
▁Fish	-10.6005
▁marketing	-10.6008
▁Track	-10.602
▁Pictures	-10.6021
▁Morgan	-10.6024
▁humanity	-10.6027
▁Ride	-10.6027
▁filed	-10.6028
▁Con	-10.603
▁Maria	-10.6035
▁Rome	-10.6037
▁Championships	-10.604
▁required	-10.6041
▁Users	-10.6047
▁mention	-10.6056
▁Male	-10.6056
▁accounts	-10.6056
▁allies	-10.6058
▁Residents	-10.606
▁constant	-10.6067
▁Racial	-10.6067
▁MTV	-10.6071
▁Democracy	-10.6073
▁Mason	-10.6073
▁somehow	-10.6074
▁Launch	-10.6074
▁causing	-10.6074
▁stick	-10.6075
▁dish	-10.6075
▁temperatures	-10.6076
▁opens	-10.6078
▁reporter	-10.6079
▁Century	-10.608
▁Gone	-10.6082
▁Lies	-10.6088
▁ad	-10.6089
▁Musical	-10.609
▁Speaks	-10.6091
▁failing	-10.6095
▁Wood	-10.6099
▁Hook	-10.6102
▁Theater	-10.6104
▁investment	-10.6105
▁determine	-10.6109
▁Title	-10.611
▁Terror	-10.6112
▁Sound	-10.6112
▁Speaker	-10.6114
▁direct	-10.6114
▁Tennessee	-10.6118
▁Kennedy	-10.6118
▁sorry	-10.6124
▁models	-10.6126
▁newly	-10.6129
▁removed	-10.6129
▁Bed	-10.6131
▁meals	-10.6133
▁shame	-10.6134
▁ship	-10.6134
▁factors	-10.6135
▁rally	-10.6139
▁Understand	-10.6141
▁inspiring	-10.6146
▁Debut	-10.6153
▁Golf	-10.6153
▁hilarious	-10.616
▁interested	-10.6161
▁Offer	-10.6161
▁Harvard	-10.6166
▁Institute	-10.6166
▁Attention	-10.6166
▁Austin	-10.6167
▁Robin	-10.6169
▁Groups	-10.617
▁Boss	-10.617
▁finish	-10.6171
▁magical	-10.6171
▁blow	-10.6172
Con	-10.6178
▁Tough	-10.6198
▁fly	-10.6199
▁define	-10.6203
▁threats	-10.6204
▁Serious	-10.6212
▁stores	-10.6213
▁Duchess	-10.6213
▁Dakota	-10.6213
▁relief	-10.6213
▁retirement	-10.6214
▁anyway	-10.6216
▁mayor	-10.622
▁runs	-10.622
lo	-10.6221
ke	-10.6225
▁Christians	-10.6229
▁Allen	-10.6235
▁severe	-10.6235
▁advance	-10.6237
▁Mac	-10.6238
▁aside	-10.6241
▁promote	-10.6242
▁Employees	-10.6247
▁Include	-10.6249
▁nations	-10.6256
▁illegal	-10.6258
▁Caught	-10.6261
▁globe	-10.6261
▁variety	-10.6261
▁opposition	-10.6261
▁Eurovision	-10.6261
▁Artists	-10.6262
▁Evidence	-10.6262
▁opposite	-10.6262
▁alcohol	-10.6262
▁Ron	-10.6266
▁although	-10.6266
▁Saved	-10.6269
▁banks	-10.6276
▁Changes	-10.6278
▁talent	-10.6283
▁inspire	-10.6289
▁Points	-10.6293
▁documents	-10.6294
But	-10.6296
▁Sexy	-10.6297
▁Named	-10.6298
▁religion	-10.63
▁photographer	-10.6301
▁Image	-10.6303
related	-10.6303
▁typical	-10.6308
▁Beijing	-10.631
▁Oprah	-10.6311
▁Rising	-10.6311
One	-10.6313
▁beloved	-10.6314
▁captured	-10.6319
▁Wears	-10.632
▁sanctions	-10.6323
▁Given	-10.6326
ya	-10.6327
▁entirely	-10.633
▁Thinking	-10.6331
▁29	-10.6331
▁Videos	-10.6333
▁passengers	-10.6343
▁perfectly	-10.6349
▁Drinking	-10.635
▁joke	-10.635
▁Disaster	-10.6353
▁alert	-10.6353
end	-10.6355
▁Endorse	-10.6356
▁Forces	-10.6356
▁Extreme	-10.6357
▁inquiry	-10.6358
▁diagnosis	-10.6362
▁Unfortunately	-10.6362
▁associated	-10.6363
▁pink	-10.6364
ey	-10.6367
ization	-10.6367
▁Cards	-10.6367
▁1,000	-10.6368
▁Proof	-10.6373
▁fame	-10.6375
ul	-10.6376
▁Heard	-10.6379
▁flying	-10.639
▁tests	-10.6393
▁quit	-10.6395
▁journalists	-10.6398
▁Emmy	-10.6399
▁Nominee	-10.6399
▁selection	-10.64
▁Simon	-10.6402
▁Awkward	-10.6402
Minute	-10.6402
▁Winner	-10.6403
▁Birmingham	-10.6407
▁wore	-10.6407
▁crucial	-10.6407
▁Parliament	-10.6407
▁Berlin	-10.6408
▁Delicious	-10.6408
▁rail	-10.6414
▁bought	-10.6415
▁45	-10.6418
▁Hurt	-10.6418
▁originally	-10.642
▁Grow	-10.642
▁Jane	-10.6421
▁Wonder	-10.6422
▁cap	-10.6422
▁featured	-10.6423
▁Reddit	-10.6424
▁largely	-10.6428
▁Joan	-10.6441
▁Ken	-10.6441
▁theme	-10.6445
▁500	-10.6448
▁Hands	-10.6448
▁counter	-10.6452
▁belief	-10.6453
▁abroad	-10.6456
▁controversy	-10.6456
▁plastic	-10.6456
▁Documentary	-10.6456
▁Leads	-10.6456
▁suicide	-10.6456
▁Jong	-10.6458
▁Pass	-10.6459
▁compared	-10.6461
▁sky	-10.6478
▁contact	-10.6486
▁Seat	-10.6487
if	-10.6499
▁Newspaper	-10.65
▁Attempt	-10.6501
▁Lopez	-10.6505
▁committee	-10.6505
▁various	-10.6505
▁Mississippi	-10.6505
▁Environmental	-10.6505
▁Surgery	-10.6505
▁WASHINGTON	-10.6505
▁Station	-10.6505
▁Chair	-10.6506
▁Chuck	-10.6506
▁diversity	-10.6508
▁larger	-10.6512
mo	-10.6516
▁Owner	-10.6523
▁Stock	-10.6524
▁Costs	-10.6525
▁Ho	-10.653
▁provided	-10.6541
▁saved	-10.6544
▁Premiere	-10.6544
▁edge	-10.6546
▁terror	-10.6547
▁Models	-10.6549
Like	-10.6551
▁Illness	-10.6552
▁Admits	-10.6553
▁standard	-10.6554
▁Illinois	-10.6554
▁Strategy	-10.6554
▁entertainment	-10.6554
▁Summit	-10.6554
▁Jamie	-10.6555
▁Dying	-10.6558
▁Injured	-10.6559
▁hero	-10.6561
▁Era	-10.6573
▁Resolutions	-10.6575
ba	-10.6577
▁staying	-10.6579
▁Fails	-10.6579
▁heads	-10.659
▁Grammys	-10.66
▁icon	-10.6601
▁deliver	-10.6604
▁Aaron	-10.6604
▁Miranda	-10.6604
▁engagement	-10.6605
▁ran	-10.6606
▁clients	-10.6608
▁Homes	-10.6611
▁Roll	-10.6612
▁enter	-10.6614
field	-10.6625
▁identify	-10.6628
▁tourists	-10.6628
▁Nicole	-10.6629
▁Feeling	-10.6629
▁explained	-10.6632
▁beating	-10.6635
▁Polls	-10.6635
▁moves	-10.6636
▁encounter	-10.6637
▁Joke	-10.6641
op	-10.6647
▁Bull	-10.6652
▁mess	-10.6652
New	-10.6652
▁fraud	-10.6654
▁asylum	-10.6654
▁estate	-10.6654
▁Native	-10.6654
▁ticket	-10.6655
▁dozen	-10.6657
▁Development	-10.6658
▁believes	-10.6661
▁sleeping	-10.6664
▁Whatever	-10.6676
▁stock	-10.6676
ina	-10.6685
▁cars	-10.669
ir	-10.669
▁encourage	-10.6692
▁Kenya	-10.6701
▁journal	-10.6703
▁confront	-10.6703
▁vital	-10.6703
▁Comic	-10.6704
▁Ocean	-10.6707
▁selling	-10.6707
▁cycle	-10.6708
▁Site	-10.6709
▁interests	-10.6721
▁supporting	-10.6723
▁Theory	-10.6724
▁ingredients	-10.6724
▁Bars	-10.6732
▁Reach	-10.6739
▁records	-10.6743
▁chain	-10.6743
▁Corporate	-10.6754
▁investigating	-10.6754
▁indeed	-10.6755
▁Corden	-10.6755
ka	-10.6755
▁banned	-10.6755
▁Struggle	-10.6757
▁dishes	-10.6757
▁compassion	-10.6759
▁Feminist	-10.676
▁cell	-10.6762
▁widely	-10.6763
▁Tower	-10.6765
▁Buying	-10.6766
▁extremely	-10.6774
▁Conservatives	-10.6774
▁follows	-10.6783
▁blast	-10.6785
▁dealing	-10.6792
▁ignore	-10.6793
Saturday	-10.6803
▁Zoo	-10.6804
▁circumstances	-10.6805
▁Cannes	-10.6805
▁Taliban	-10.6806
▁hidden	-10.6808
▁Egg	-10.6811
▁Tale	-10.6816
▁laugh	-10.6818
▁Shut	-10.6819
▁killer	-10.6819
▁elected	-10.6819
▁meaningful	-10.6821
▁wondering	-10.6824
▁Y	-10.6824
wing	-10.6825
▁potentially	-10.683
▁dose	-10.6834
cing	-10.6838
et	-10.684
▁Officers	-10.6845
▁soldiers	-10.6847
▁tweets	-10.6848
▁moral	-10.6849
Inspired	-10.6854
▁Bag	-10.6855
▁Colin	-10.6858
▁DJ	-10.6859
▁dying	-10.686
▁Came	-10.6862
▁sand	-10.6864
▁chair	-10.6864
▁gap	-10.6865
▁refused	-10.6872
▁'90	-10.6872
▁Winning	-10.6877
▁advocates	-10.6885
ball	-10.6887
▁Suit	-10.6892
▁Capital	-10.6904
▁Massachusetts	-10.6907
▁Leaving	-10.6907
▁CDC	-10.6908
Our	-10.6908
▁Joseph	-10.6909
▁impressive	-10.6909
▁stood	-10.691
▁Terrible	-10.6912
▁Independence	-10.6914
▁Lord	-10.6915
▁cards	-10.6925
▁tool	-10.693
▁Mad	-10.694
▁Due	-10.6941
▁destinations	-10.6941
▁praise	-10.6947
▁solve	-10.6947
▁Ford	-10.695
▁Features	-10.6955
▁Apologizes	-10.6956
▁column	-10.6957
▁Lunch	-10.6958
▁Cleveland	-10.6959
▁Madonna	-10.6959
▁hide	-10.696
▁Potential	-10.696
▁stressful	-10.6961
ni	-10.6961
▁measures	-10.6962
▁declared	-10.6964
▁Field	-10.6966
▁trees	-10.6971
▁noticed	-10.6976
▁ties	-10.698
top	-10.6985
▁Fac	-10.6988
▁hat	-10.6989
▁agreed	-10.6991
▁Receive	-10.6992
rd	-10.6997
▁Remove	-10.6998
▁grief	-10.701
Reilly	-10.701
▁daughters	-10.7012
▁suddenly	-10.7015
▁Josh	-10.7018
▁urged	-10.7018
▁Difference	-10.7019
▁Fund	-10.7019
▁Activist	-10.7019
▁teenager	-10.702
▁pants	-10.7021
j	-10.7021
▁Hidden	-10.7021
▁Tree	-10.7028
▁Door	-10.7031
▁Ties	-10.7041
▁paint	-10.7042
▁Reject	-10.7047
▁none	-10.7049
▁thinks	-10.7054
li	-10.7058
▁Pat	-10.7059
▁tournament	-10.7063
▁workplace	-10.7063
▁Bacon	-10.7064
▁traffic	-10.7064
▁luxury	-10.7064
▁dozens	-10.7064
▁personality	-10.7066
▁Sense	-10.7067
▁Destinations	-10.7067
▁stronger	-10.708
▁earn	-10.7088
▁suspected	-10.7093
▁projects	-10.7097
▁voices	-10.7098
▁jump	-10.7111
▁Ground	-10.7113
▁obesity	-10.7116
▁dedicated	-10.7117
▁Zoe	-10.7122
▁Candy	-10.7123
▁village	-10.7126
▁toddler	-10.7127
▁Paper	-10.7128
▁Standing	-10.7128
▁remind	-10.7129
▁spouse	-10.7129
▁Orange	-10.713
▁Mountain	-10.7131
▁Sister	-10.7131
▁nutrition	-10.7136
▁Wage	-10.7139
▁Picks	-10.7141
he	-10.7142
▁pool	-10.7144
▁markets	-10.7148
▁Replace	-10.7157
▁al	-10.7159
▁acting	-10.7163
▁Porn	-10.7166
▁Promise	-10.7167
▁Pelosi	-10.7167
▁preparing	-10.7167
▁Presidency	-10.7168
▁luck	-10.7168
▁Inauguration	-10.7169
▁Interior	-10.7172
▁boyfriend	-10.7172
▁milk	-10.7172
▁incredibly	-10.7174
▁beliefs	-10.7175
▁Divorced	-10.7175
▁threatened	-10.7176
▁Challenges	-10.7177
▁danger	-10.7179
▁Behavior	-10.718
▁Slam	-10.7181
▁cook	-10.7181
▁household	-10.7183
▁Pacific	-10.7185
▁Saving	-10.7196
▁owners	-10.7204
▁remove	-10.7208
▁choosing	-10.722
▁jury	-10.722
▁Beckham	-10.722
▁Ross	-10.7224
▁Athletes	-10.7226
▁gathered	-10.723
▁neighborhood	-10.7234
▁Character	-10.7235
▁deeper	-10.7235
▁attended	-10.7243
▁Restaurants	-10.7244
▁maintain	-10.7244
▁ruled	-10.7251
ine	-10.7252
▁deals	-10.7254
ten	-10.7263
▁Warm	-10.7267
▁mindful	-10.7268
▁intense	-10.7268
▁cruise	-10.7269
▁McCarthy	-10.7273
▁Morocco	-10.7273
▁anywhere	-10.7274
▁yesterday	-10.7274
▁Teaching	-10.7274
▁Maryland	-10.7274
▁Glass	-10.7274
▁Melissa	-10.7275
▁Survive	-10.7276
▁empty	-10.7276
▁therapy	-10.7278
▁Roman	-10.7281
▁Quit	-10.7285
▁flag	-10.7286
▁Veteran	-10.7289
▁ocean	-10.729
▁Statement	-10.7295
▁headed	-10.73
▁probe	-10.73
▁Shoot	-10.7302
▁characters	-10.7303
▁south	-10.7305
▁survivors	-10.7307
▁votes	-10.7308
▁north	-10.731
▁veterans	-10.7312
▁Mail	-10.7318
▁feed	-10.7322
▁Minnesota	-10.7326
▁Controversy	-10.7327
▁Exactly	-10.7327
▁eventually	-10.7327
▁Newcastle	-10.7327
ent	-10.7327
▁Bizarre	-10.7329
▁user	-10.733
▁remarkable	-10.7331
▁computer	-10.7343
▁Failure	-10.7347
▁topic	-10.7351
▁Treat	-10.7354
▁speed	-10.7356
▁relations	-10.7361
head	-10.7372
▁Unexpected	-10.7373
▁custody	-10.738
▁providing	-10.738
▁Flynn	-10.738
▁southern	-10.7381
▁RNC	-10.7382
▁Lincoln	-10.7382
▁passing	-10.7389
Becoming	-10.739
▁Garden	-10.7393
▁Lesbian	-10.74
▁Bathroom	-10.7404
▁Tears	-10.7405
v	-10.7405
ning	-10.7412
▁visitors	-10.7414
▁2009	-10.742
▁combat	-10.7425
▁Hey	-10.7425
▁vast	-10.7427
Real	-10.7429
▁practices	-10.7431
▁Nigeria	-10.7431
▁prefer	-10.7434
▁Selena	-10.7434
▁pride	-10.7434
▁somewhere	-10.7436
▁Hearing	-10.7436
▁Recovery	-10.7436
▁Square	-10.7438
▁dresses	-10.7447
▁tied	-10.7449
▁Ago	-10.7456
▁bear	-10.7457
▁Journalists	-10.7461
▁Immigrant	-10.7463
▁Threats	-10.7465
▁Highlights	-10.7471
▁stands	-10.7475
Time	-10.7478
▁Quick	-10.7479
▁Turned	-10.7479
▁Sri	-10.7479
ard	-10.7479
▁Ending	-10.748
▁Detroit	-10.7488
▁misconduct	-10.749
▁Quotes	-10.7491
▁Confederate	-10.7493
▁lying	-10.7493
▁Recently	-10.7495
▁Mission	-10.7495
▁sentence	-10.7497
▁link	-10.7498
▁loan	-10.7509
▁determined	-10.751
▁III	-10.751
▁department	-10.751
▁resort	-10.7512
▁Loses	-10.7512
▁generally	-10.7514
▁Vows	-10.7529
▁lay	-10.7531
▁exit	-10.7532
Part	-10.7538
▁Successful	-10.7538
▁Medicaid	-10.7543
▁summit	-10.7543
▁Relief	-10.7543
▁Denies	-10.7543
▁Prix	-10.7543
▁university	-10.7544
▁Diabetes	-10.7544
▁fifth	-10.7545
▁overcome	-10.7545
▁suspended	-10.7548
▁Brady	-10.7551
▁Cheating	-10.7552
▁Along	-10.7553
▁Guys	-10.7553
▁argue	-10.7555
con	-10.7555
▁Driving	-10.7555
▁Howard	-10.7558
▁homeless	-10.756
▁Airline	-10.7564
▁Costume	-10.7565
▁roll	-10.7579
▁Mothers	-10.758
▁Reduce	-10.7586
▁Milk	-10.7596
▁property	-10.7598
▁Spicer	-10.76
▁scientific	-10.76
▁okay	-10.76
▁Amber	-10.7602
▁Loves	-10.7604
▁unless	-10.7607
▁Path	-10.7608
fi	-10.7609
▁advocate	-10.761
▁Islam	-10.7612
▁Strikes	-10.7619
Go	-10.762
▁civilians	-10.7624
▁Alive	-10.7627
▁Philippines	-10.7629
▁2024	-10.7632
▁Gala	-10.764
▁20-	-10.7643
▁chose	-10.765
▁breaks	-10.7652
▁pack	-10.7652
▁Gomez	-10.7653
▁Stadium	-10.7653
▁Baseball	-10.7653
▁queer	-10.7654
▁Murphy	-10.7655
Friendly	-10.7656
▁stepped	-10.7656
▁management	-10.7656
▁Discrimination	-10.7658
▁flu	-10.7661
▁typically	-10.7661
▁tea	-10.7662
▁Moss	-10.7664
▁Weigh	-10.7665
▁Founder	-10.7666
Let	-10.7668
▁faster	-10.7668
▁Turning	-10.7669
▁Nazi	-10.7675
▁Iraqi	-10.7686
▁Maine	-10.7697
red	-10.7697
▁trick	-10.7698
▁supply	-10.7708
▁LeBron	-10.7709
▁Navy	-10.771
▁species	-10.771
▁Embrace	-10.7711
▁devastating	-10.7712
▁mobile	-10.7714
▁Healthier	-10.7714
▁Fed	-10.7715
▁upset	-10.7717
▁girlfriend	-10.7718
▁base	-10.7721
▁systems	-10.7722
▁Relationships	-10.7723
▁ads	-10.7725
▁reminded	-10.7726
▁Screen	-10.7728
▁firms	-10.773
▁apply	-10.7748
Elon	-10.7749
▁acknowledge	-10.7752
▁Easier	-10.7764
▁Jerusalem	-10.7764
▁Drake	-10.7764
▁Jake	-10.7764
▁flowers	-10.7767
Right	-10.7767
▁Marvel	-10.7767
▁Mystery	-10.7768
▁Boyfriend	-10.777
▁Kris	-10.7776
ned	-10.7777
▁emails	-10.7783
▁Revealed	-10.7789
▁apartment	-10.7794
▁buildings	-10.7798
run	-10.7798
▁Arts	-10.7799
▁Nice	-10.7801
▁defend	-10.7801
▁Journalist	-10.7808
au	-10.7812
▁Cases	-10.7813
▁Colombia	-10.7817
▁Clear	-10.7819
▁appropriate	-10.782
▁gratitude	-10.782
▁numerous	-10.782
▁Gulf	-10.782
▁Clothes	-10.782
▁disruption	-10.782
▁Poland	-10.7821
▁Greg	-10.7821
▁Retirement	-10.7822
▁convicted	-10.7822
▁Urban	-10.7822
▁Urges	-10.7823
▁patterns	-10.7823
Good	-10.7823
▁Terrorism	-10.7825
Dressed	-10.7825
▁terrorism	-10.7827
▁visiting	-10.7828
▁Clip	-10.7831
▁Dancing	-10.7835
▁Millennials	-10.784
▁helpful	-10.784
▁Apps	-10.7843
▁teams	-10.7846
▁Lawmaker	-10.7851
▁sexy	-10.7851
▁Ma	-10.7851
▁commercial	-10.7852
▁ordered	-10.7852
▁Update	-10.7856
▁Vaccine	-10.7858
▁succeed	-10.7861
▁connect	-10.787
▁Recent	-10.787
▁soft	-10.7872
▁profound	-10.7872
▁Fearless	-10.7876
▁Edinburgh	-10.7877
▁possibility	-10.7877
▁receiving	-10.7877
▁memorable	-10.7878
▁featuring	-10.7878
▁tragic	-10.7878
▁Sheriff	-10.7879
▁Round	-10.7883
▁Ridiculous	-10.7884
▁Shooter	-10.789
▁guess	-10.7895
kin	-10.7906
▁Funding	-10.7906
▁Mount	-10.7907
▁accident	-10.7908
▁testing	-10.7911
▁Died	-10.7913
▁sources	-10.7918
▁Strange	-10.7924
▁highlight	-10.7924
▁wealth	-10.7926
▁admitted	-10.7927
▁fund	-10.7929
▁Charlotte	-10.7933
▁vintage	-10.7933
▁universe	-10.7933
▁Charge	-10.7934
▁spotted	-10.7934
▁Henry	-10.7936
▁presented	-10.7944
▁Absolutely	-10.7947
▁Loving	-10.7948
▁acts	-10.7951
▁12-	-10.7956
ca	-10.796
▁migrants	-10.7968
▁Resolution	-10.7968
▁sites	-10.7973
▁Cash	-10.7974
▁forms	-10.7986
▁Keith	-10.799
▁Anthem	-10.799
▁Arctic	-10.799
▁Shutdown	-10.7991
▁Macron	-10.7991
▁necessarily	-10.7991
▁epidemic	-10.7992
▁devices	-10.7992
▁remarks	-10.7992
▁shoot	-10.7998
▁introduced	-10.7999
▁Latinos	-10.8002
▁conversations	-10.8003
▁Hunger	-10.8006
▁bottle	-10.8013
▁Inc	-10.8021
▁Gare	-10.8025
▁affair	-10.8025
▁blogger	-10.8026
▁Guard	-10.8027
▁Serve	-10.8034
▁Fine	-10.8034
▁Nevada	-10.8048
▁reputation	-10.8048
▁occurred	-10.8048
▁Diego	-10.8048
▁silver	-10.8049
▁Lena	-10.8049
▁DOJ	-10.805
▁Revolution	-10.805
ating	-10.8062
▁struggles	-10.8068
▁flavor	-10.8068
▁Lights	-10.8071
hour	-10.8073
▁g	-10.8074
▁Flying	-10.8078
▁Burger	-10.8086
▁Marketing	-10.8092
▁Sky	-10.8093
▁brave	-10.8094
▁picked	-10.8097
▁Accuse	-10.8103
▁Interest	-10.8104
▁Universe	-10.8105
▁neither	-10.8105
▁5-	-10.8108
▁Brothers	-10.811
▁offensive	-10.8116
ut	-10.8117
▁scared	-10.8118
▁armed	-10.8124
▁Butter	-10.8125
▁managed	-10.8125
▁outfit	-10.8127
▁healing	-10.8128
▁promised	-10.8129
▁chronic	-10.8131
Un	-10.8138
▁Blow	-10.8141
▁Lack	-10.8144
▁Progressive	-10.8144
style	-10.8147
▁horror	-10.8147
▁affects	-10.8148
▁assume	-10.8151
▁Ends	-10.8155
▁factor	-10.8155
▁Kushner	-10.8163
▁tomorrow	-10.8163
▁Campus	-10.8164
▁Motherhood	-10.8164
▁fabulous	-10.8165
▁sending	-10.8167
▁Such	-10.8167
▁unable	-10.8168
▁Inner	-10.8169
▁identified	-10.817
▁Broken	-10.8171
▁types	-10.8172
▁Readers	-10.8175
▁Sounds	-10.818
▁$100	-10.8181
▁schedule	-10.8192
▁Cats	-10.8206
▁crew	-10.8209
▁provides	-10.8211
▁situations	-10.8215
▁represent	-10.8216
▁bold	-10.8217
▁creativity	-10.8222
▁Earlier	-10.8222
▁Iconic	-10.8223
▁iPad	-10.8223
▁text	-10.8223
▁Prevention	-10.8223
▁Rapper	-10.8223
▁Emily	-10.8224
▁bread	-10.8226
▁endless	-10.8227
▁foundation	-10.8229
▁Carry	-10.823
▁saving	-10.8233
▁Kane	-10.8234
▁flow	-10.8236
▁rarely	-10.8238
ana	-10.8242
▁Oct	-10.8244
▁Parker	-10.8244
▁maintaining	-10.8252
▁adding	-10.8256
▁Meets	-10.8259
▁museum	-10.8264
▁shots	-10.8265
▁asks	-10.8266
▁Net	-10.8267
▁Lie	-10.8269
▁Fly	-10.8274
▁voter	-10.8277
▁overwhelming	-10.8278
▁Jonathan	-10.828
▁soccer	-10.828
▁Norway	-10.8281
▁zone	-10.8281
▁Spoof	-10.8282
▁Boat	-10.8285
Just	-10.8287
▁Drunk	-10.8288
sh	-10.8289
▁Girlfriend	-10.8291
▁Hilariously	-10.8294
▁mixed	-10.8304
▁Row	-10.8306
▁Pants	-10.8308
▁Trouble	-10.8314
▁Adults	-10.832
▁Survivor	-10.8323
▁ideal	-10.8323
▁attitude	-10.833
▁producer	-10.8331
▁Commission	-10.8332
▁carrying	-10.8333
▁Nobel	-10.8341
▁Ian	-10.8342
▁scenes	-10.8342
▁teenage	-10.8343
making	-10.8344
▁resolutions	-10.8344
▁Amanda	-10.8345
▁begun	-10.8347
▁Islands	-10.8349
▁exposed	-10.8351
▁Nobody	-10.8355
▁intended	-10.8356
Can	-10.8363
▁Records	-10.8365
▁dressed	-10.8368
▁Politicians	-10.8368
▁4-	-10.837
▁Billy	-10.8373
▁heading	-10.838
▁Fuel	-10.8388
▁protection	-10.839
▁surrounding	-10.8391
▁Barcelona	-10.8399
▁Netherlands	-10.8399
▁Arianna	-10.8399
▁Ruling	-10.8399
▁slightly	-10.8401
▁perform	-10.8401
▁winners	-10.8402
▁blind	-10.8403
▁Lines	-10.8406
ance	-10.841
Re	-10.8423
▁limits	-10.8427
▁allowing	-10.8427
star	-10.8429
▁Master	-10.8434
▁2.	-10.8434
▁swing	-10.8436
▁2-	-10.8436
▁32	-10.8438
▁Gain	-10.844
▁Cancel	-10.8444
▁hosts	-10.8447
▁theater	-10.8447
▁Senior	-10.8448
▁Conflict	-10.8451
▁Blasts	-10.8453
▁NY	-10.8454
▁Dutch	-10.8459
▁survival	-10.846
▁valuable	-10.8461
▁worldwide	-10.8461
▁Makeover	-10.8463
▁fallen	-10.8465
▁Taxes	-10.8471
▁Jews	-10.8472
▁delivered	-10.8478
law	-10.8478
▁lights	-10.8483
▁aspects	-10.8483
▁Failed	-10.8483
▁Falls	-10.8485
▁Brad	-10.8492
▁net	-10.8494
▁Starting	-10.8495
Homemade	-10.8497
za	-10.8499
▁billionaire	-10.8508
▁Agreement	-10.8509
▁Constitution	-10.8509
▁Protection	-10.851
▁refugee	-10.8511
▁Serena	-10.8515
▁Tip	-10.8518
▁Reid	-10.852
▁extraordinary	-10.8524
Out	-10.8527
▁Page	-10.8529
▁Reminder	-10.853
▁Coal	-10.8531
▁visited	-10.8535
▁Rand	-10.8538
▁generations	-10.8539
▁$5	-10.8541
▁experiment	-10.8542
lin	-10.8549
▁Outfits	-10.8558
▁guard	-10.8562
▁Russians	-10.8563
▁Rate	-10.8563
▁Fisher	-10.8569
▁landscape	-10.8571
▁Guest	-10.8572
▁fled	-10.8575
▁cheap	-10.8576
▁Forest	-10.8579
▁Zuckerberg	-10.8579
▁minority	-10.8583
▁Atlantic	-10.8584
▁Angela	-10.8589
month	-10.859
▁150	-10.8592
▁warn	-10.8595
ru	-10.8596
▁fewer	-10.8597
ham	-10.8598
▁weekly	-10.86
▁Raises	-10.8609
▁Process	-10.8612
▁CBS	-10.8613
▁wage	-10.8614
▁Fact	-10.8623
▁Defeat	-10.8624
▁Needed	-10.8626
▁panel	-10.8628
▁mortgage	-10.8632
▁session	-10.8633
▁Nails	-10.8636
▁Cell	-10.8636
▁Daniels	-10.864
▁Timberlake	-10.864
▁northern	-10.864
▁Appearance	-10.864
ant	-10.8641
▁conspiracy	-10.8641
▁Expensive	-10.8641
▁independence	-10.8643
▁relatively	-10.8646
▁bomb	-10.8655
▁candy	-10.8657
▁aimed	-10.8662
▁Lion	-10.8667
▁Sends	-10.8683
Me	-10.8683
▁destroy	-10.869
▁Wasn	-10.8691
▁Affair	-10.8695
ber	-10.8696
▁Partner	-10.8697
▁Myth	-10.8698
▁Pentagon	-10.8701
▁Podcast	-10.8701
▁Pruitt	-10.8701
▁enforcement	-10.8702
▁diverse	-10.8702
▁tie	-10.8704
▁vegetables	-10.8704
▁Contest	-10.8704
▁Dick	-10.8704
▁WHO	-10.8705
▁Truly	-10.8705
▁Engaged	-10.8706
▁Wayne	-10.8707
▁eggs	-10.8711
ron	-10.8711
▁focusing	-10.8712
▁trapped	-10.8714
▁Shades	-10.8719
www	-10.8719
▁bullying	-10.872
▁Keeps	-10.8723
ci	-10.8726
▁secrets	-10.8727
▁Dec	-10.8731
▁butter	-10.8734
▁marked	-10.8735
▁demands	-10.8736
▁enjoying	-10.8739
▁sub	-10.8741
che	-10.8743
▁Account	-10.8756
▁Eight	-10.8758
▁pleasure	-10.8758
▁machine	-10.8759
▁dads	-10.876
▁resolution	-10.876
▁carried	-10.8763
▁happier	-10.8763
huffington	-10.8763
▁Diana	-10.8763
▁Vietnam	-10.8763
▁Dave	-10.8764
▁Else	-10.8764
▁Rainbow	-10.8766
▁Total	-10.8766
▁continuing	-10.8767
▁hip	-10.8768
▁Blues	-10.8769
der	-10.8769
house	-10.877
▁Masters	-10.8773
▁THE	-10.8779
bo	-10.8783
▁reaching	-10.8784
▁Shame	-10.8784
▁Stuff	-10.8787
▁react	-10.8788
▁Mini	-10.8789
▁Released	-10.8791
▁coal	-10.8791
▁participants	-10.8792
zi	-10.8792
▁champions	-10.8793
▁Anger	-10.8794
mi	-10.8795
era	-10.8795
▁flat	-10.8807
▁master	-10.8812
war	-10.8816
▁Salt	-10.8817
▁immediate	-10.8818
▁Quiet	-10.882
▁Virgin	-10.8821
▁Simpson	-10.8822
▁Pumpkin	-10.8822
▁Diamond	-10.8823
▁Jubilee	-10.8825
▁Kendall	-10.8825
▁Giuliani	-10.8825
▁Lindsey	-10.8825
▁autism	-10.8825
▁centre	-10.8825
▁novel	-10.8825
▁privacy	-10.8826
▁DNA	-10.8826
▁shelter	-10.8826
▁DeVos	-10.8826
▁Rush	-10.8827
▁DACA	-10.8829
▁chairman	-10.8829
▁picks	-10.8831
▁epic	-10.8831
▁Na	-10.8834
▁slowly	-10.8838
▁differently	-10.8841
▁awards	-10.8847
▁alongside	-10.8847
▁roles	-10.8852
Putting	-10.8853
▁funds	-10.8854
▁pie	-10.8861
▁Perfectly	-10.8866
▁flights	-10.8878
America	-10.8884
▁chef	-10.8886
▁Solution	-10.8886
▁adviser	-10.8886
▁employee	-10.8887
▁Gwyneth	-10.8887
▁combination	-10.8887
▁pizza	-10.8887
▁Type	-10.8889
▁Professor	-10.889
▁Palestinians	-10.8892
▁league	-10.8892
Muslim	-10.8897
People	-10.8897
▁Mommy	-10.8902
▁contract	-10.8905
▁publicly	-10.8905
▁Officially	-10.8906
▁Keir	-10.8924
ists	-10.8925
▁leg	-10.8925
▁lately	-10.8937
▁Gen	-10.8941
ja	-10.8945
▁Cyber	-10.895
▁Hudson	-10.895
▁Mediterranean	-10.895
▁Wardrobe	-10.895
▁Wisdom	-10.895
▁experiencing	-10.895
▁wardrobe	-10.895
▁consumer	-10.895
▁dessert	-10.895
▁Goals	-10.895
▁Holmes	-10.895
▁Unique	-10.8952
▁communication	-10.8953
▁PAC	-10.8955
▁Writing	-10.8955
▁comeback	-10.8957
▁Sets	-10.8957
▁Patient	-10.8957
mon	-10.896
▁Sell	-10.8963
im	-10.8966
▁river	-10.8968
work	-10.8973
▁Seeing	-10.8975
▁Progress	-10.8982
called	-10.8983
▁speaker	-10.8984
▁dry	-10.8984
▁discussed	-10.8987
▁Mid	-10.899
▁Elle	-10.8991
▁aims	-10.8996
▁loud	-10.9003
▁Ka	-10.9004
▁awkward	-10.9007
▁holds	-10.9012
▁Ceremony	-10.9013
▁Singapore	-10.9013
▁Stylish	-10.9013
▁strategies	-10.9013
▁tennis	-10.9013
▁Routine	-10.9013
▁Consumer	-10.9019
▁Plant	-10.9019
▁Votes	-10.902
▁invited	-10.9021
▁proof	-10.9029
▁habit	-10.9029
▁Grey	-10.903
que	-10.9039
▁Zen	-10.9047
▁Bid	-10.9049
▁reporting	-10.9072
▁Panel	-10.9072
▁targets	-10.9073
▁institutions	-10.9073
▁Jo	-10.9075
▁radical	-10.9076
▁confident	-10.9076
▁Djokovic	-10.9077
▁ESPN	-10.9077
▁Cambridge	-10.9077
▁Montana	-10.9077
▁Tackle	-10.9077
▁Workplace	-10.9077
▁Ko	-10.9078
▁Influence	-10.9078
▁Calm	-10.9079
▁urban	-10.908
▁Goodbye	-10.908
▁eastern	-10.9081
▁Cocktails	-10.9085
▁extended	-10.9092
▁Rap	-10.9093
volving	-10.9096
▁7-	-10.9097
▁material	-10.9098
▁Older	-10.9101
▁Advocates	-10.9102
▁Trolls	-10.9105
▁Farm	-10.9105
▁Donate	-10.9106
▁Jet	-10.911
▁Suspected	-10.9112
▁Rolling	-10.9116
▁Deaths	-10.9117
▁deserves	-10.913
▁request	-10.913
▁Tricks	-10.9132
▁Toxic	-10.9136
▁Criticism	-10.9141
round	-10.9141
▁Religion	-10.9141
▁Outbreak	-10.9142
▁district	-10.9146
▁Organization	-10.9146
▁Soda	-10.9149
▁distance	-10.9151
▁studio	-10.9151
▁drawn	-10.9152
▁striker	-10.9155
▁warming	-10.916
▁searching	-10.9161
▁Miles	-10.9163
▁Selling	-10.9174
▁regret	-10.9188
▁fundamental	-10.9194
▁friendly	-10.9196
▁dispute	-10.92
▁dates	-10.9205
▁Holocaust	-10.9205
▁sauce	-10.9205
▁Pipeline	-10.9205
▁Everywhere	-10.9206
▁spotlight	-10.9206
▁basically	-10.9206
▁affordable	-10.9207
▁Eddie	-10.9207
▁Identity	-10.9209
▁Tina	-10.9209
▁unlikely	-10.921
▁Effect	-10.9211
▁Member	-10.9212
▁Blast	-10.9212
▁Globe	-10.9212
▁Sing	-10.9213
▁Paying	-10.9213
▁excuse	-10.9213
▁Unless	-10.9214
▁Everyday	-10.9215
over	-10.9218
▁reflects	-10.9219
cal	-10.922
▁Level	-10.9223
▁Kiss	-10.9232
▁Voices	-10.9236
▁puts	-10.924
▁Web	-10.9243
way	-10.9258
▁Lover	-10.9261
▁arrive	-10.9266
▁contribute	-10.9266
▁Reynolds	-10.927
▁Welsh	-10.927
▁exhibition	-10.927
▁Brazilian	-10.9271
▁mindfulness	-10.9272
▁treats	-10.9272
▁Brilliant	-10.9273
▁Angry	-10.9275
▁Cleaning	-10.9277
▁bird	-10.9278
▁vehicle	-10.9278
▁mirror	-10.9279
▁Eastern	-10.9279
▁Dirty	-10.9282
▁professionals	-10.9285
ud	-10.9288
▁relax	-10.9292
▁produced	-10.9292
▁Destroy	-10.9295
▁calories	-10.9297
▁49	-10.9298
▁uses	-10.9304
▁label	-10.9307
▁smoke	-10.9307
Home	-10.931
▁hopeful	-10.9314
▁settle	-10.9315
▁Handle	-10.9323
▁personally	-10.9326
▁Balance	-10.9327
▁Confirms	-10.9328
▁exclusive	-10.9328
▁Troops	-10.9329
▁Entire	-10.933
▁Lin	-10.9333
▁Paltrow	-10.9335
▁Meanwhile	-10.9335
▁Novak	-10.9336
▁concrete	-10.9337
▁Epidemic	-10.9338
▁additional	-10.9339
▁Koch	-10.9339
▁barely	-10.934
▁Roberts	-10.9346
▁cocktail	-10.9347
▁Benefit	-10.9347
▁vaccine	-10.9348
state	-10.9351
▁Travelers	-10.9351
▁Mess	-10.9356
dy	-10.9356
▁viewers	-10.9361
▁Kick	-10.9363
▁ski	-10.9367
▁bike	-10.9368
▁drinks	-10.9369
▁Understanding	-10.9373
▁protecting	-10.9374
▁Enter	-10.9377
▁Pays	-10.9382
▁placed	-10.9387
▁300	-10.9389
▁describes	-10.9399
▁returning	-10.9399
▁announce	-10.94
▁Portugal	-10.9401
▁Lindsay	-10.9401
▁Perspective	-10.9401
▁Runway	-10.9402
▁countless	-10.9402
▁tickets	-10.9403
▁Increase	-10.9403
▁confused	-10.9404
▁Language	-10.9405
▁kindness	-10.9412
▁kinds	-10.9413
▁Machine	-10.9413
▁duty	-10.9413
▁equally	-10.9413
▁Effort	-10.9414
▁rival	-10.9415
▁regarding	-10.9418
▁jet	-10.9418
▁Leading	-10.942
▁doors	-10.9428
▁Bryant	-10.9433
▁Falling	-10.9436
ford	-10.9438
▁opinions	-10.9443
▁ID	-10.9449
▁accuse	-10.9452
▁Boehner	-10.9467
▁Connecticut	-10.9467
▁Vermont	-10.9467
▁Spice	-10.9467
▁Bodies	-10.9467
▁mis	-10.9468
▁Aleppo	-10.9468
▁Ship	-10.9468
▁Wore	-10.947
▁Opioid	-10.947
▁rises	-10.947
▁worker	-10.9473
▁Sparks	-10.9475
▁colors	-10.9475
▁smoking	-10.9475
▁drivers	-10.9476
▁Ethics	-10.9479
▁Comedian	-10.9481
ney	-10.9482
▁liberal	-10.9487
▁witness	-10.9488
▁partners	-10.949
▁loves	-10.9496
▁Numbers	-10.9497
▁internal	-10.9503
▁expand	-10.9505
▁smaller	-10.9506
▁Pie	-10.9506
▁Meal	-10.9508
lu	-10.9509
▁Portland	-10.9515
mer	-10.9519
▁Escape	-10.9524
▁joint	-10.9525
▁Lanka	-10.953
▁arm	-10.9531
▁campus	-10.9532
▁revolution	-10.9533
▁Grief	-10.9533
▁romance	-10.9533
▁basketball	-10.9534
▁argument	-10.9534
▁gonna	-10.9534
ring	-10.9534
▁except	-10.9537
▁anchor	-10.9537
▁authentic	-10.9539
▁Mobile	-10.9541
▁carbon	-10.9541
▁trail	-10.9542
▁Emmys	-10.9544
▁Jump	-10.9549
▁Write	-10.955
▁Bikini	-10.955
▁runway	-10.955
▁Plea	-10.9551
▁missile	-10.9551
▁transform	-10.9554
▁Selfie	-10.956
▁restrictions	-10.9561
▁la	-10.9563
▁garden	-10.9571
▁marry	-10.9574
▁Nutrition	-10.9576
▁Count	-10.9578
▁Crowd	-10.9579
class	-10.9581
▁Deals	-10.9588
▁surface	-10.9588
▁Truck	-10.9589
▁privilege	-10.959
ck	-10.9591
▁Equal	-10.9596
ure	-10.9597
▁Ann	-10.9598
▁Virus	-10.9599
▁Worker	-10.96
▁Gordon	-10.96
▁Misconduct	-10.96
▁Dunham	-10.96
▁Reunion	-10.9601
▁baseball	-10.9601
▁Memory	-10.9601
▁Combat	-10.9601
▁mystery	-10.9601
▁Traffic	-10.9601
▁Carey	-10.9602
▁Coverage	-10.9602
▁Tragedy	-10.9602
▁knot	-10.9602
▁Continue	-10.9605
▁Kerr	-10.9606
▁Alec	-10.9609
▁Feels	-10.9613
▁approved	-10.9616
▁nurse	-10.9618
▁Reaction	-10.9619
▁brides	-10.962
▁Form	-10.9625
ping	-10.9625
▁reporters	-10.9636
▁degree	-10.9637
▁cup	-10.9643
▁Items	-10.9649
ities	-10.9652
▁Citizens	-10.9664
can	-10.9665
▁mouth	-10.9666
▁plot	-10.9668
INFOGRAPHIC	-10.9668
▁Christopher	-10.9668
▁Annual	-10.9668
▁sought	-10.9668
▁precious	-10.967
▁Information	-10.9671
▁Keys	-10.9672
▁Guess	-10.9673
▁sees	-10.9674
▁capture	-10.9675
▁investigate	-10.9675
▁dirty	-10.9676
▁toxic	-10.9677
▁Completely	-10.9681
▁Plays	-10.9685
▁solid	-10.9687
▁Manager	-10.9694
ko	-10.9694
▁Wouldn	-10.97
▁packed	-10.9705
▁gathering	-10.971
▁notes	-10.9712
▁cry	-10.9718
▁fees	-10.9723
▁Bombing	-10.9728
ise	-10.9728
▁collective	-10.9729
▁Holding	-10.9729
▁Cars	-10.9733
▁operation	-10.9734
▁Kellyanne	-10.9736
▁Barbara	-10.9736
▁midfielder	-10.9736
▁Nottingham	-10.9736
▁Drama	-10.9736
▁specifically	-10.9736
▁Melania	-10.9737
▁Chanel	-10.9737
▁deadline	-10.9738
▁Aim	-10.9739
▁Villa	-10.9739
▁Antonio	-10.9739
▁cleaning	-10.974
▁forgotten	-10.974
▁False	-10.9741
▁Claire	-10.9742
▁Smoking	-10.9742
▁beaches	-10.9743
▁Banned	-10.9746
well	-10.9747
▁regularly	-10.975
LGBT	-10.9751
▁Haven	-10.9752
▁destroyed	-10.9753
▁Bullying	-10.9755
▁survived	-10.9755
▁Elections	-10.9755
▁medal	-10.9757
▁location	-10.9757
▁Blogger	-10.9757
▁physically	-10.9758
▁Cookie	-10.9758
▁Employee	-10.9759
▁Jokes	-10.9761
▁rush	-10.9763
▁bridge	-10.9767
▁Loved	-10.977
▁Meaning	-10.977
▁Parks	-10.9771
▁accepted	-10.9775
▁Fires	-10.9776
▁terrorist	-10.9777
born	-10.9779
▁lawyers	-10.9779
▁cookies	-10.978
▁involves	-10.9783
po	-10.9797
▁print	-10.9797
▁Hopes	-10.9799
▁Ancient	-10.9804
▁Bridal	-10.9804
▁Curry	-10.9804
▁MSNBC	-10.9804
▁marijuana	-10.9804
▁territory	-10.9804
▁Toronto	-10.9804
▁Kasich	-10.9804
▁Edition	-10.9804
▁Subway	-10.9804
▁Christina	-10.9804
▁Tyler	-10.9804
▁Nude	-10.9804
▁tries	-10.9805
▁Stuck	-10.9805
▁hadn	-10.9805
▁Parade	-10.9805
▁everybody	-10.9806
▁dancing	-10.9807
▁estimated	-10.9807
▁Lamar	-10.9808
▁Silver	-10.9809
▁document	-10.9809
▁chosen	-10.981
▁Adult	-10.9811
▁Sept	-10.9812
▁Telling	-10.9812
▁Sanctions	-10.9822
▁Debuts	-10.9824
hi	-10.9826
▁Within	-10.9829
▁pilot	-10.983
▁extend	-10.9831
▁naturally	-10.9832
▁attending	-10.9851
▁Ke	-10.9856
▁Sh	-10.9862
▁closet	-10.9862
▁TikTok	-10.9864
▁golf	-10.9871
▁Orders	-10.9872
▁Mariupol	-10.9873
▁squad	-10.9873
▁Watson	-10.9873
▁Jolie	-10.9873
▁Sandra	-10.9873
▁Gratitude	-10.9874
▁Passes	-10.9876
▁Below	-10.9878
▁Arkansas	-10.9878
▁corruption	-10.9878
▁frequently	-10.9878
▁Nov	-10.9882
▁recall	-10.9886
▁clock	-10.9886
▁exchange	-10.9888
▁Extra	-10.9888
▁scheduled	-10.9892
▁wellness	-10.9894
▁kiss	-10.9897
▁Resort	-10.9898
▁newspaper	-10.9898
▁Outfit	-10.9899
▁Salad	-10.99
▁lesbian	-10.99
▁phrase	-10.99
▁Hart	-10.9904
▁Dressed	-10.9909
▁joins	-10.9911
▁Services	-10.9912
▁Rangers	-10.9914
▁burden	-10.9927
▁psychological	-10.9937
▁Village	-10.9942
▁humor	-10.9942
▁1980	-10.9942
▁Khloe	-10.9943
▁Bobby	-10.9943
▁Fill	-10.9944
▁mainstream	-10.9944
▁useful	-10.9946
you	-10.9948
▁wounded	-10.9949
▁emerged	-10.9951
more	-10.9952
▁Manning	-10.9953
▁Messi	-10.9956
our	-10.9957
▁Inspiring	-10.9958
▁mum	-10.9958
▁Remembering	-10.9959
▁attempts	-10.996
▁noted	-10.9969
▁rhetoric	-10.9969
▁driven	-10.9971
▁bathroom	-10.9973
▁posts	-10.9982
▁pushed	-10.9989
▁Toys	-10.9995
▁Promises	-10.9997
▁wondered	-10.9998
▁Link	-11.0002
▁spots	-11.001
▁Luxury	-11.0012
▁Parody	-11.0012
▁Cuomo	-11.0012
▁spokesman	-11.0012
▁Angelina	-11.0012
▁Largest	-11.0013
▁Blind	-11.0014
▁raises	-11.0016
▁Everton	-11.0016
▁Emails	-11.0017
▁joining	-11.0021
▁farm	-11.0028
▁purchase	-11.003
▁Heads	-11.003
▁Marine	-11.0031
▁van	-11.0031
▁entered	-11.0034
▁crying	-11.004
▁Chic	-11.004
▁Hundred	-11.0041
▁explosion	-11.0041
▁professor	-11.0041
▁Grande	-11.0043
▁Mis	-11.0045
▁Se	-11.0047
▁Bra	-11.0058
▁Refuses	-11.006
▁400	-11.0063
▁Crown	-11.0071
▁Zelensky	-11.0076
ung	-11.0079
▁heal	-11.0079
▁75	-11.0082
▁Earthquake	-11.0082
▁Sterling	-11.0082
▁pollution	-11.0082
▁Gallery	-11.0082
▁Belgium	-11.0083
▁Lawyers	-11.0084
▁heels	-11.0084
▁Billboard	-11.0085
▁Charleston	-11.0087
▁criticized	-11.0087
▁En	-11.0088
▁delivery	-11.0091
ville	-11.0092
▁Normal	-11.0093
▁Collins	-11.0095
▁evolution	-11.0097
Who	-11.01
level	-11.01
▁Pan	-11.0101
▁loses	-11.0105
▁Sleeping	-11.0112
ex	-11.0112
▁background	-11.0115
▁Hamilton	-11.0121
ger	-11.0124
▁Worry	-11.0126
▁Aging	-11.0134
board	-11.0137
ab	-11.0137
▁repeal	-11.0139
▁Daughters	-11.0142
▁transformation	-11.0143
▁Seems	-11.015
▁NCAA	-11.0153
▁Caitlyn	-11.0153
▁Cabinet	-11.0153
▁diabetes	-11.0155
▁existence	-11.0156
▁Solar	-11.0157
▁ages	-11.0158
▁Thompson	-11.016
▁convinced	-11.0161
▁Letting	-11.0162
▁weddings	-11.0163
▁Rates	-11.0165
▁Donna	-11.0166
▁Pen	-11.0166
school	-11.017
▁6-	-11.0172
▁salad	-11.0186
▁parade	-11.0187
▁Appeal	-11.0187
▁outcome	-11.0188
▁jailed	-11.019
▁elite	-11.019
▁brief	-11.0193
▁sexually	-11.0199
▁actors	-11.02
made	-11.0205
▁Todd	-11.0206
▁Honest	-11.0219
▁Risks	-11.0223
▁congressional	-11.0224
▁denies	-11.0224
▁excitement	-11.0224
▁Lucy	-11.0224
▁bunch	-11.0224
▁Diane	-11.0224
▁Genius	-11.0225
▁Rory	-11.0225
▁chancellor	-11.0227
▁boring	-11.0227
▁grandmother	-11.0227
▁ordinary	-11.0227
▁Exclusive	-11.0228
▁Flip	-11.0229
▁plain	-11.023
▁granted	-11.0233
▁shootings	-11.0235
▁Demi	-11.0238
▁breathe	-11.0238
foot	-11.024
▁Marie	-11.0243
▁Closet	-11.0245
▁Figure	-11.0253
bn	-11.0261
La	-11.0263
10	-11.0265
▁Appears	-11.0266
▁Cry	-11.0275
▁mini	-11.0278
▁Begins	-11.0288
▁commit	-11.0295
▁Dylan	-11.0296
▁Foster	-11.0296
▁Basketball	-11.0296
▁Charity	-11.0296
▁understood	-11.0296
▁resignation	-11.0296
▁Leeds	-11.0298
▁Dean	-11.0299
▁Crashes	-11.0301
▁alike	-11.0302
▁Twins	-11.0303
▁Sexist	-11.0305
▁apps	-11.0307
▁symbol	-11.0314
▁Respond	-11.0316
▁Transform	-11.0318
▁collapse	-11.0321
▁Decades	-11.0321
▁directed	-11.0327
▁Grant	-11.0328
▁Code	-11.0331
▁Settlement	-11.0334
▁Adviser	-11.0334
▁council	-11.0335
▁queen	-11.0336
▁east	-11.0339
▁Knows	-11.0343
▁shocking	-11.0345
▁Scenes	-11.0346
▁Prosecutors	-11.0349
▁floods	-11.035
▁Condemn	-11.0351
▁brands	-11.0357
▁designers	-11.0357
▁cure	-11.0359
▁tourist	-11.0361
Being	-11.0362
▁odds	-11.0362
▁proper	-11.0367
ti	-11.0367
▁Alcohol	-11.0368
▁Leicester	-11.0368
▁Tokyo	-11.0368
▁Boycott	-11.0368
▁plants	-11.0368
▁Jury	-11.0368
▁widespread	-11.0369
▁Dishes	-11.037
▁peek	-11.037
▁Vegan	-11.0371
my	-11.0373
▁Hip	-11.0373
▁fault	-11.0373
▁Jill	-11.0373
▁Resistance	-11.0374
▁thrown	-11.0375
▁hitting	-11.0377
▁Ruth	-11.0377
▁oldest	-11.0379
▁Luke	-11.0379
▁Winners	-11.038
▁rejected	-11.0381
▁responded	-11.0394
her	-11.0395
▁Reminds	-11.0395
▁Mc	-11.0398
▁refuse	-11.0399
▁shocked	-11.0401
As	-11.0405
▁Saint	-11.0408
▁definition	-11.0409
▁stressed	-11.0411
▁loans	-11.0413
▁deny	-11.0416
▁Magical	-11.0419
▁gear	-11.0419
bi	-11.0425
▁demanding	-11.0427
▁throwing	-11.0428
▁defence	-11.0432
▁traditions	-11.0433
▁Bangladesh	-11.0433
▁Caucus	-11.0439
▁Backlash	-11.0441
▁Minimum	-11.0441
▁Martha	-11.0441
▁seemingly	-11.0441
▁Knight	-11.0441
▁priority	-11.0442
▁legs	-11.0442
▁minimum	-11.0442
▁signature	-11.0443
▁uncomfortable	-11.0443
▁Puppy	-11.0443
▁native	-11.0444
▁ugly	-11.0444
▁repeatedly	-11.0446
▁Held	-11.0449
▁10,000	-11.045
?!	-11.0456
▁ignored	-11.0458
▁effectively	-11.0459
▁Karl	-11.0461
▁Soup	-11.0462
Big	-11.0462
▁Drinks	-11.0464
▁detail	-11.0467
▁Ski	-11.0467
▁Discover	-11.0467
▁DC	-11.0469
▁Lifetime	-11.0469
▁Dems	-11.0469
▁Inspire	-11.047
▁15-	-11.0472
▁counts	-11.0474
▁bite	-11.0476
▁36	-11.0478
▁Feds	-11.0483
▁crowds	-11.0484
▁outbreak	-11.0486
▁stranger	-11.0486
▁Speaking	-11.0488
School	-11.049
▁Da	-11.0491
▁diseases	-11.0492
▁tale	-11.0498
min	-11.0498
▁Mix	-11.0499
let	-11.0503
▁tight	-11.0503
▁traveled	-11.0513
▁Funeral	-11.0514
▁Heidi	-11.0514
▁recognition	-11.0514
▁1970	-11.0515
▁Tyson	-11.0515
▁Custody	-11.0515
▁Bible	-11.0515
▁capable	-11.0516
▁route	-11.0517
▁Apology	-11.0518
▁Poverty	-11.0518
▁prayers	-11.0518
▁Violent	-11.0519
▁Brussels	-11.052
▁marathon	-11.052
▁colorful	-11.0525
▁Compare	-11.0528
▁theory	-11.0532
White	-11.0535
▁33	-11.0536
▁defined	-11.0537
▁savings	-11.0537
▁Deserve	-11.0546
▁importantly	-11.0546
▁stretch	-11.0547
▁bags	-11.0548
▁Original	-11.0552
▁Costumes	-11.0558
▁narrative	-11.056
▁Attend	-11.0561
▁error	-11.0562
▁aspect	-11.0563
▁outdoor	-11.0563
hu	-11.0567
▁tone	-11.0569
ov	-11.057
▁fate	-11.0571
▁39	-11.0576
▁18-	-11.0576
▁Value	-11.0579
▁item	-11.0579
▁Swedish	-11.0588
▁Coronation	-11.0588
▁glimpse	-11.0588
▁Craig	-11.0588
▁resistance	-11.0588
▁Playlist	-11.0589
▁teeth	-11.0589
▁compete	-11.0589
▁Luis	-11.0591
▁goodbye	-11.0591
▁surge	-11.0591
▁brown	-11.0593
ita	-11.0594
▁Scary	-11.0598
▁Breakup	-11.0601
▁midst	-11.0604
▁Mama	-11.0607
known	-11.0609
▁Tests	-11.061
▁recover	-11.0613
Off	-11.0615
▁Perform	-11.0618
▁attempted	-11.0627
▁Sit	-11.0628
▁Nomination	-11.0634
▁scheme	-11.0634
▁sector	-11.0637
▁Drone	-11.0637
▁expression	-11.0639
▁switch	-11.0645
▁section	-11.0645
▁pot	-11.0646
▁Asking	-11.0649
▁AI	-11.0651
▁narrow	-11.0656
▁guilt	-11.0656
▁Remind	-11.0658
▁Bright	-11.066
▁web	-11.0662
▁DeGeneres	-11.0663
▁Luther	-11.0663
▁harsh	-11.0663
▁Venice	-11.0663
▁Importance	-11.0663
▁Garner	-11.0663
▁1990	-11.0663
▁bizarre	-11.0664
▁Cox	-11.0666
▁capacity	-11.0667
▁Jackie	-11.067
▁trips	-11.0671
▁hole	-11.0672
▁Respect	-11.0674
▁divided	-11.0674
▁Brave	-11.0679
▁sentenced	-11.0679
▁Holy	-11.0679
▁lift	-11.0682
▁37	-11.0683
▁map	-11.0684
▁Size	-11.0688
▁Gu	-11.069
▁tensions	-11.0701
▁Adventure	-11.0707
▁supported	-11.0711
▁101	-11.0711
▁Billionaire	-11.0714
▁wanting	-11.0715
▁Cookies	-11.0716
▁Camera	-11.0717
▁menu	-11.0725
▁Mindful	-11.0731
▁Lip	-11.0737
▁NYPD	-11.0738
▁Strategies	-11.0738
▁apology	-11.0738
▁Massacre	-11.0738
▁Europa	-11.0738
▁Anyway	-11.0738
▁drag	-11.0739
▁stolen	-11.0739
▁Hour	-11.074
▁Inequality	-11.074
▁Tourism	-11.0741
▁Meditations	-11.0741
▁Dame	-11.0743
▁Nicki	-11.0744
▁smell	-11.0744
▁trailer	-11.0746
▁neck	-11.0748
▁sing	-11.075
ship	-11.0751
good	-11.0753
▁34	-11.0754
▁Ros	-11.0755
▁hunt	-11.0768
but	-11.077
▁Apart	-11.0771
▁pace	-11.0772
▁convention	-11.0773
▁Ruin	-11.0774
▁Jam	-11.0776
▁Wolf	-11.0776
▁tricks	-11.0777
▁threatening	-11.0779
▁Migrants	-11.0784
▁Website	-11.0788
▁Commercial	-11.0789
▁Lu	-11.079
▁Hang	-11.0791
▁rooms	-11.0792
▁hundred	-11.0792
▁accurate	-11.0806
▁spectacular	-11.0808
▁Via	-11.0812
▁agencies	-11.0813
▁Betsy	-11.0813
▁desk	-11.0814
▁laid	-11.0814
▁Mirror	-11.0814
▁unknown	-11.0814
▁Proud	-11.0814
▁Afraid	-11.0815
▁Rudy	-11.0815
▁Bigger	-11.0816
▁Terrifying	-11.0817
▁Fury	-11.0818
▁Marcus	-11.0818
▁Castle	-11.0819
▁Barbie	-11.082
▁Wade	-11.0823
▁Hack	-11.0824
▁Blog	-11.0826
▁Present	-11.0827
▁conducted	-11.0827
▁Hosts	-11.0829
ang	-11.0832
Oh	-11.0839
riana	-11.0846
▁earned	-11.0851
▁Base	-11.0851
▁2-1	-11.0851
▁Essential	-11.0862
▁occasion	-11.0864
▁Map	-11.0866
▁gown	-11.0868
▁Mistake	-11.0871
▁podcast	-11.0875
▁rivals	-11.0876
▁grace	-11.0877
▁tear	-11.0877
▁hosted	-11.0881
▁Vatican	-11.0889
▁rural	-11.0889
▁Tillerson	-11.0889
▁Memories	-11.089
▁Spill	-11.089
▁Liam	-11.089
▁Recap	-11.0892
▁Spotlight	-11.0893
▁stepping	-11.0894
▁agents	-11.0895
▁Bread	-11.0895
▁organized	-11.0898
▁golden	-11.0899
▁zero	-11.0903
▁Linda	-11.0905
▁Turner	-11.0907
▁performed	-11.091
list	-11.0914
▁successfully	-11.0915
▁mask	-11.0919
▁Rain	-11.092
▁Explore	-11.0921
Get	-11.0926
▁channel	-11.0933
▁Latin	-11.0942
▁initiative	-11.0945
▁Customers	-11.0952
▁phones	-11.0954
▁Pit	-11.0956
ory	-11.0958
▁desperate	-11.0963
▁Started	-11.0963
▁Medal	-11.0965
STUDY	-11.0966
▁calendar	-11.0966
▁Abroad	-11.0966
▁dining	-11.0966
▁panic	-11.0966
▁Danny	-11.0967
▁Wright	-11.0967
▁Twice	-11.0967
▁Ronaldo	-11.0967
▁Crystal	-11.0968
▁stylish	-11.0968
▁Brighton	-11.0968
▁Experiment	-11.0968
▁Bans	-11.097
▁Bucket	-11.097
▁sexuality	-11.097
▁payments	-11.0971
▁Multiple	-11.0973
▁reflection	-11.0973
▁Spots	-11.0975
▁Sharing	-11.0976
▁contain	-11.0979
▁Daddy	-11.0981
▁Discuss	-11.0981
▁Gates	-11.0982
▁Cuban	-11.0984
▁React	-11.0984
▁supplies	-11.0986
▁rescued	-11.0987
q	-11.0988
▁craft	-11.0992
▁Honors	-11.0992
▁attract	-11.0993
iness	-11.0994
▁Answers	-11.0996
▁shake	-11.1005
▁Del	-11.1011
▁package	-11.1012
▁Icon	-11.1017
▁$10	-11.102
▁finance	-11.1024
▁Edward	-11.1024
▁nightmare	-11.1026
▁Fruit	-11.1028
▁Score	-11.1029
▁Shark	-11.1029
▁athlete	-11.1031
▁Approve	-11.1031
▁Damage	-11.1032
▁initial	-11.1036
▁relate	-11.1037
▁pets	-11.1038
▁centuries	-11.1043
▁Opposition	-11.1043
▁Minaj	-11.1044
▁Bloomberg	-11.1044
▁1-0	-11.1044
▁fantasy	-11.1045
▁Erdogan	-11.1045
▁Conspiracy	-11.1045
▁Twenty	-11.1045
▁Housing	-11.1045
▁Cricket	-11.1045
▁Utd	-11.1046
▁excellent	-11.1047
▁Flash	-11.1047
▁Brutal	-11.1047
▁Milan	-11.1048
ac	-11.1049
▁Closer	-11.105
some	-11.105
De	-11.105
▁nobody	-11.105
▁Memo	-11.1051
▁carefully	-11.1052
▁abandoned	-11.1052
▁spoken	-11.1056
▁warnings	-11.1057
▁rose	-11.1058
▁obviously	-11.106
bar	-11.106
▁Lo	-11.1064
World	-11.1068
▁prosecutors	-11.1069
▁burning	-11.107
▁editors	-11.1075
▁Bachelor	-11.1075
▁Supporting	-11.1077
▁emotionally	-11.1078
▁Concerns	-11.1078
▁Paint	-11.1082
▁Pets	-11.1086
night	-11.1099
▁Connection	-11.1104
▁shine	-11.1104
▁Celebration	-11.1105
▁outrage	-11.1109
▁Burns	-11.1109
▁Passengers	-11.1113
▁Celebs	-11.1115
▁innocent	-11.1116
▁lovely	-11.1118
▁Venezuela	-11.1119
▁brutal	-11.112
▁Aniston	-11.1121
▁closing	-11.1121
▁Leslie	-11.1121
▁Scalia	-11.1121
▁ADHD	-11.1123
▁Studies	-11.1123
▁Coolest	-11.1124
▁Taiwan	-11.1124
▁exposure	-11.1124
▁Madison	-11.1125
▁Okay	-11.1125
▁Heroes	-11.1126
▁acceptance	-11.1128
▁notion	-11.1128
▁inequality	-11.1128
▁Skip	-11.1129
▁shirt	-11.1131
▁Stick	-11.1132
▁Resigns	-11.1137
week	-11.1138
▁Feet	-11.114
▁Scores	-11.1141
▁Gin	-11.1146
▁differences	-11.1146
set	-11.1151
▁Views	-11.1152
▁imagined	-11.1158
▁expecting	-11.1166
▁statements	-11.1169
▁Resign	-11.117
▁counsel	-11.1171
At	-11.1181
▁Bit	-11.1183
▁lockdown	-11.1184
▁brothers	-11.1185
▁Waste	-11.1185
▁creator	-11.1191
▁horse	-11.1195
▁Unlike	-11.1195
▁Huckabee	-11.12
▁advertising	-11.12
▁exploring	-11.12
▁infrastructure	-11.12
▁Microsoft	-11.12
▁Mosque	-11.12
▁Spike	-11.12
▁nervous	-11.12
▁Reagan	-11.12
▁IRS	-11.12
▁legendary	-11.1201
▁Plastic	-11.1202
▁Photography	-11.1203
▁Jesse	-11.1203
▁fastest	-11.1204
very	-11.1205
▁tested	-11.1206
▁heroes	-11.1207
▁flee	-11.1207
▁Literally	-11.1208
▁fought	-11.1209
UPDATED	-11.121
ors	-11.121
▁investors	-11.1211
▁handful	-11.1214
▁Captain	-11.1216
▁rage	-11.1217
wood	-11.1221
▁Toll	-11.1221
▁Rescued	-11.1223
home	-11.1228
▁Lane	-11.123
▁march	-11.1234
▁Accept	-11.1238
▁improved	-11.1239
▁Solo	-11.1247
▁Agree	-11.1252
▁Dis	-11.1257
▁Horse	-11.1263
▁regulations	-11.1266
▁decline	-11.1267
▁Nightmare	-11.127
▁Opera	-11.1271
▁Effects	-11.1271
▁anxious	-11.1272
▁Hunter	-11.1274
▁elements	-11.1276
▁historical	-11.1279
▁McIlroy	-11.1279
▁Penalty	-11.1279
▁Douglas	-11.1279
▁Choosing	-11.1279
▁Campbell	-11.1279
▁landmark	-11.1279
▁Jeffrey	-11.1279
▁watchdog	-11.1279
▁Footage	-11.1279
▁Depp	-11.1279
▁Theatre	-11.128
▁Mu	-11.128
▁yellow	-11.128
▁Stolen	-11.1281
▁Vision	-11.1282
hand	-11.1284
▁Producer	-11.1284
▁Abandoned	-11.1286
▁Sentenced	-11.1287
▁profile	-11.129
▁spin	-11.1291
▁Armed	-11.1291
▁Express	-11.1293
▁Events	-11.1298
▁$3	-11.13
▁kicked	-11.1306
▁Angel	-11.1325
▁peak	-11.1331
▁Prices	-11.1332
air	-11.1335
▁Aims	-11.1336
▁Missed	-11.1337
light	-11.1343
▁Remain	-11.1349
▁gang	-11.1352
▁protected	-11.1354
ward	-11.1355
▁trauma	-11.1359
▁collaboration	-11.1359
▁Kaepernick	-11.1359
▁BBQ	-11.1359
▁egg	-11.1359
▁Freddie	-11.1359
▁recession	-11.1359
▁Natalie	-11.136
▁salt	-11.136
▁Madness	-11.1361
▁genuine	-11.1361
▁healthcare	-11.1362
▁chat	-11.1362
▁Spiritual	-11.1362
▁Survival	-11.1362
▁Majority	-11.1362
▁creates	-11.1363
▁Medicare	-11.1364
▁Silicon	-11.1366
▁army	-11.1367
▁bedroom	-11.1369
Today	-11.1389
▁Broke	-11.1391
▁expressed	-11.1394
vo	-11.1398
▁lists	-11.1401
▁figured	-11.1405
▁Ne	-11.1405
▁dust	-11.1412
▁Lynch	-11.1415
▁Approach	-11.142
▁Grandma	-11.1422
Style	-11.1428
▁Cocktail	-11.1429
▁Ambassador	-11.143
▁weapon	-11.1432
▁prominent	-11.1432
▁grab	-11.1432
▁exact	-11.1434
▁Clark	-11.1434
▁Aide	-11.1435
▁Florence	-11.1439
▁Worried	-11.1439
▁Policies	-11.1439
▁pursuit	-11.1439
▁Thailand	-11.144
▁Keystone	-11.144
▁Comfort	-11.144
▁Fantasy	-11.144
▁2-0	-11.144
▁phenomenon	-11.1441
▁curious	-11.1442
▁Wang	-11.1442
▁Parties	-11.1444
▁Spark	-11.1447
▁Glenn	-11.1451
▁Guests	-11.1452
▁Wow	-11.1452
▁square	-11.1453
PR	-11.1458
▁2'	-11.1459
▁Hint	-11.146
▁finances	-11.146
▁Wave	-11.146
ster	-11.1461
▁Eggs	-11.1462
election	-11.1464
▁recommend	-11.1468
▁survivor	-11.1469
▁Notes	-11.1471
▁truck	-11.1474
▁Pitt	-11.1476
▁None	-11.1479
▁code	-11.1481
▁43	-11.1481
▁Decor	-11.1482
▁Giants	-11.1484
▁Ku	-11.1484
▁Julia	-11.1491
▁cope	-11.1496
▁writers	-11.1499
▁falls	-11.1502
▁waves	-11.1503
▁Mall	-11.1506
▁Demands	-11.1507
▁costume	-11.1513
▁Panther	-11.1514
▁Shelter	-11.1514
▁judgment	-11.1514
▁pause	-11.1514
▁Mask	-11.1515
▁universal	-11.1515
▁customer	-11.1515
▁silent	-11.1516
▁peaceful	-11.1516
..."	-11.1519
▁Naomi	-11.152
▁destruction	-11.152
▁confusion	-11.152
▁guidance	-11.152
▁pipeline	-11.1521
▁Undocumented	-11.1521
▁regardless	-11.1521
▁rough	-11.1521
▁honored	-11.1521
▁transfer	-11.1522
▁Benghazi	-11.1522
▁Gluten	-11.1522
▁Personality	-11.1522
▁Iceland	-11.1522
▁Idol	-11.1523
▁sustainable	-11.1523
▁Port	-11.1524
▁Offensive	-11.1525
▁Ladies	-11.1526
▁REPORT	-11.1531
▁Testing	-11.1536
▁conscious	-11.1536
▁Harder	-11.154
▁Files	-11.1543
▁picking	-11.1545
▁Inter	-11.1549
▁Taken	-11.1554
▁gather	-11.1561
▁Cole	-11.1567
▁Brides	-11.1573
▁grade	-11.1576
▁Condition	-11.1579
▁nurses	-11.1581
▁object	-11.1582
▁correct	-11.1588
▁Known	-11.1593
▁i	-11.1596
▁drone	-11.1596
▁Olympian	-11.1597
▁impression	-11.1597
▁agent	-11.1597
▁jokes	-11.1597
▁enjoyed	-11.1598
▁friendship	-11.1598
▁Spouse	-11.1598
▁Sara	-11.1598
▁worthy	-11.1598
▁Feed	-11.1599
▁Hugh	-11.16
▁Hispanic	-11.16
▁Thai	-11.1602
▁absence	-11.1602
▁Formula	-11.1602
▁Drew	-11.1603
▁Opportunity	-11.1603
▁improving	-11.1603
▁massacre	-11.1604
▁Starmer	-11.1604
▁Doug	-11.1605
▁YOU	-11.1605
▁Illegal	-11.1605
▁Harper	-11.1606
▁approval	-11.1606
▁edition	-11.1608
▁Growth	-11.1608
▁Kremlin	-11.1608
▁Chase	-11.1609
▁Suspended	-11.1614
▁911	-11.1616
▁NI	-11.162
▁Weapons	-11.1622
▁pitch	-11.1623
▁jeans	-11.1625
▁Rocks	-11.1626
▁Touching	-11.1627
(	-11.1631
▁singing	-11.1632
▁Bold	-11.1634
ap	-11.1634
▁parks	-11.1642
▁covering	-11.1642
▁positions	-11.1646
▁Core	-11.1649
▁polling	-11.165
▁claiming	-11.1653
▁Sheer	-11.1657
▁senators	-11.166
ig	-11.1661
▁65	-11.1663
▁pattern	-11.1664
cheeky	-11.1667
▁urge	-11.1668
▁4.	-11.1672
▁reverse	-11.1673
▁Urge	-11.1681
▁regime	-11.1681
▁walls	-11.1682
▁donate	-11.1682
▁Wind	-11.1683
▁Agenda	-11.1685
▁Happier	-11.1685
▁Themselves	-11.1685
▁mogul	-11.1685
▁Karen	-11.1685
▁fascinating	-11.1685
▁strengthen	-11.1686
▁payment	-11.1686
▁2000	-11.1686
▁protein	-11.1686
▁Definitely	-11.1689
▁unprecedented	-11.169
▁Warner	-11.1693
▁Teenage	-11.1693
▁mad	-11.1701
▁comic	-11.1702
▁Batman	-11.1703
▁Documents	-11.1704
filled	-11.1704
▁function	-11.1709
ups	-11.1715
▁Chaos	-11.1719
▁Nine	-11.1722
▁Starts	-11.1722
▁painting	-11.1726
▁dis	-11.1728
▁gained	-11.1731
▁Hearts	-11.1735
ver	-11.1736
les	-11.1737
▁Brief	-11.1745
▁confirm	-11.1749
▁Tattoo	-11.1751
▁Unveil	-11.1752
point	-11.1755
▁bound	-11.1757
▁NEW	-11.1758
▁Couldn	-11.1759
▁visits	-11.1759
▁Hat	-11.1759
▁apparent	-11.1761
▁Cha	-11.1763
▁soup	-11.1764
▁Pool	-11.1766
▁device	-11.1766
▁ballot	-11.1766
▁segment	-11.1768
▁context	-11.1768
▁Phoenix	-11.1768
▁boundaries	-11.1768
▁Nixon	-11.1768
▁Mortgage	-11.1768
▁fancy	-11.1768
▁2007	-11.1769
▁Creator	-11.1769
▁quest	-11.1772
▁Feb	-11.1773
▁Fewer	-11.1779
▁admits	-11.1779
▁Bat	-11.1782
▁Theme	-11.1784
▁complaints	-11.1791
▁significantly	-11.1792
▁flooding	-11.1792
▁adopt	-11.1797
▁hang	-11.1798
▁Expected	-11.18
▁remaining	-11.1801
▁Pose	-11.1801
breaking	-11.1802
▁Declares	-11.1805
▁king	-11.1806
▁exists	-11.1811
▁entrepreneur	-11.1825
▁signing	-11.1825
▁Patriots	-11.1826
▁Spread	-11.1827
▁Provide	-11.1836
▁towns	-11.1839
▁Plot	-11.184
▁teenagers	-11.184
▁Decide	-11.184
▁disagree	-11.184
▁Julian	-11.1842
▁Effective	-11.1844
▁remote	-11.1844
▁Rwanda	-11.1848
▁Toy	-11.185
▁Trek	-11.1851
▁Mysterious	-11.1851
▁inevitable	-11.1851
▁insight	-11.1851
▁elderly	-11.1853
▁Muhammad	-11.1853
▁Comeback	-11.1853
▁prevention	-11.1854
▁orange	-11.1855
▁Silent	-11.1856
ot	-11.1856
▁productive	-11.1858
▁Alice	-11.1858
▁Lucky	-11.186
▁Wellness	-11.1861
▁classes	-11.1863
ability	-11.1863
▁seats	-11.1867
▁hardest	-11.1867
▁protections	-11.1871
▁Goal	-11.1873
▁Ni	-11.1874
▁whenever	-11.1877
▁researcher	-11.1888
▁Warriors	-11.1889
ped	-11.1892
▁Films	-11.1893
▁profit	-11.1899
▁8-	-11.19
▁counting	-11.1901
oo	-11.1908
▁Shift	-11.1913
▁newest	-11.1921
▁addressed	-11.1922
▁reign	-11.1923
▁Carly	-11.1924
▁knock	-11.1924
▁prize	-11.1926
▁entrepreneurs	-11.193
▁Pep	-11.1933
▁Lions	-11.1935
▁guidelines	-11.1936
▁Joshua	-11.1936
▁unclear	-11.1936
▁fantastic	-11.1936
▁Romantic	-11.1937
▁Robinson	-11.1937
▁Anymore	-11.1937
▁Autumn	-11.1938
▁Tired	-11.1938
▁occur	-11.1938
!”	-11.1938
▁nail	-11.1939
▁Passion	-11.1939
▁nonprofit	-11.1939
▁settlement	-11.1939
▁Egyptian	-11.194
▁Naked	-11.1941
▁Accounts	-11.1943
▁opposed	-11.1943
ible	-11.1944
▁evil	-11.1946
▁beaten	-11.1947
▁treating	-11.1949
▁treatments	-11.1954
berg	-11.1958
▁approaching	-11.1961
don	-11.1963
just	-11.1963
urgen	-11.1964
sized	-11.1965
▁Frozen	-11.1973
hop	-11.1973
▁Pack	-11.1981
▁30-	-11.1983
▁Led	-11.1985
▁Eco	-11.1987
▁flash	-11.1987
These	-11.199
▁rid	-11.1992
▁Transition	-11.1997
ware	-11.1998
▁rap	-11.1999
▁Traveler	-11.2001
▁behaviors	-11.2001
▁sporting	-11.2004
▁accomplish	-11.2005
▁Introduce	-11.2009
▁Corn	-11.201
▁attempting	-11.2011
▁Delivers	-11.2012
▁Sandwich	-11.2021
▁careful	-11.2021
▁Munich	-11.2021
▁encouraging	-11.2021
▁thrive	-11.2021
▁turkey	-11.2021
▁Nepal	-11.2021
▁SNP	-11.2021
▁congressman	-11.2021
▁grocery	-11.2022
▁Polish	-11.2022
▁Reese	-11.2023
▁Herself	-11.2023
▁Chairman	-11.2024
▁temporary	-11.2024
▁Dreamers	-11.2025
▁Evans	-11.2028
▁entertaining	-11.2029
▁Ugly	-11.2029
▁Pilot	-11.203
▁Heal	-11.203
▁proven	-11.2033
▁getaway	-11.2033
▁Zero	-11.2036
▁coup	-11.2041
▁Sauce	-11.2041
▁Tied	-11.2043
▁Costa	-11.2045
▁con	-11.2046
▁Hello	-11.2048
ade	-11.205
▁17-	-11.206
Yes	-11.2061
living	-11.2062
▁Carlos	-11.2062
▁Area	-11.2062
▁Critical	-11.2064
▁Crimes	-11.2067
▁Causes	-11.2073
▁hoped	-11.2078
▁airlines	-11.2078
▁hospitals	-11.2078
water	-11.2084
▁breathing	-11.2088
ow	-11.2092
zo	-11.2094
▁franchise	-11.2107
▁Megyn	-11.2107
▁Gym	-11.2107
▁Denver	-11.2107
▁ACLU	-11.2107
▁Delta	-11.2108
▁fossil	-11.2109
▁Management	-11.2111
▁Di	-11.2111
▁fatal	-11.2113
▁Celeb	-11.2114
▁birds	-11.2114
▁Elephant	-11.2114
▁odd	-11.2114
▁classroom	-11.2115
▁partnership	-11.2115
▁Hide	-11.2115
▁Gown	-11.2115
▁thrilling	-11.2117
▁emissions	-11.2118
▁Seem	-11.2121
▁rely	-11.2127
ub	-11.2134
▁farmers	-11.2134
▁hanging	-11.2135
▁finished	-11.2136
Have	-11.2144
income	-11.2145
ably	-11.2148
▁broadcast	-11.215
▁Complete	-11.2151
▁Rant	-11.2152
▁Maya	-11.2152
▁2014.	-11.2158
▁Philip	-11.2163
▁celebrates	-11.2163
▁13-	-11.2165
▁crossing	-11.2166
▁Stores	-11.2167
▁snack	-11.2175
▁Eva	-11.2177
▁corporations	-11.2178
▁Cam	-11.2179
▁Deliver	-11.218
▁pursue	-11.2182
▁opt	-11.2185
▁handed	-11.219
▁tremendous	-11.219
▁aging	-11.219
▁Strength	-11.219
▁pledge	-11.2192
▁structure	-11.2194
▁Gorsuch	-11.2194
▁retain	-11.2194
▁Yahoo	-11.2194
▁Vanessa	-11.2194
▁Dining	-11.2194
▁Lemon	-11.2194
▁1960	-11.2194
▁Feature	-11.2196
▁Apartment	-11.2197
▁Feud	-11.2197
▁horrific	-11.2197
▁overwhelmed	-11.2198
▁Proposed	-11.2199
▁Photoshop	-11.2201
▁Protecting	-11.2202
▁Missile	-11.2204
Mad	-11.2205
▁Passenger	-11.2207
▁shortage	-11.2207
▁Professional	-11.2207
▁wealthy	-11.2207
▁Liberal	-11.2208
▁Spider	-11.2208
▁Begin	-11.2209
▁infection	-11.2213
▁locals	-11.2214
▁praised	-11.2214
▁encouraged	-11.2215
▁roots	-11.2218
book	-11.2219
▁Healing	-11.2222
▁Moral	-11.223
▁Covers	-11.2231
▁Skills	-11.2238
▁entering	-11.2241
▁bombing	-11.2242
▁vows	-11.2242
den	-11.2242
new	-11.2246
▁cats	-11.2248
▁rent	-11.2249
▁targeting	-11.2249
▁11-	-11.225
▁electric	-11.225
▁Jacobs	-11.2259
▁pure	-11.226
▁Speed	-11.2263
▁sudden	-11.2274
▁intimate	-11.2276
▁Libya	-11.2278
▁frequent	-11.228
▁deputy	-11.2281
▁drove	-11.2281
▁Jewelry	-11.2281
▁Beginning	-11.2282
▁Closing	-11.2282
▁dialogue	-11.2283
▁emerging	-11.2283
▁Fatal	-11.2283
▁Airplane	-11.2284
▁promotion	-11.2284
▁authority	-11.2284
▁Regardless	-11.2284
▁somewhat	-11.2288
▁Edge	-11.2289
▁hosting	-11.2289
▁Sand	-11.229
▁Stun	-11.2292
▁innovation	-11.2293
▁Term	-11.2293
▁Quite	-11.2297
▁solo	-11.2298
▁'80	-11.2306
▁Empire	-11.2307
▁blamed	-11.2311
▁48	-11.2313
▁Shake	-11.2313
▁shops	-11.2314
▁Fred	-11.2314
▁dollar	-11.2316
▁Ha	-11.2326
▁condemn	-11.2326
▁Holder	-11.2327
▁shower	-11.2328
▁di	-11.2328
▁Mayo	-11.2329
▁conduct	-11.233
▁Posts	-11.2335
▁Ditch	-11.2335
▁Beth	-11.2339
▁resign	-11.2339
▁delay	-11.234
▁Li	-11.2341
▁reward	-11.2341
gate	-11.2346
VIDEOS	-11.2352
▁Burn	-11.2356
▁Touch	-11.236
▁Seeking	-11.2363
▁fierce	-11.2365
▁enormous	-11.2366
See	-11.2366
▁16-	-11.2367
▁Large	-11.2368
▁Columbia	-11.237
▁Manafort	-11.237
▁drought	-11.237
▁Communities	-11.237
▁Bureau	-11.237
▁Derby	-11.237
▁2019	-11.237
▁Poses	-11.237
▁Cuff	-11.237
▁Cape	-11.237
▁artificial	-11.2371
▁located	-11.2371
▁pitches	-11.2372
▁Paradise	-11.2373
▁entry	-11.2374
cy	-11.2375
▁Shootings	-11.2375
▁Cutest	-11.2377
▁sensitive	-11.2377
▁Rex	-11.2378
▁Itself	-11.2379
▁Remains	-11.2383
Law	-11.2383
▁Franklin	-11.2384
▁pumpkin	-11.2384
▁Broad	-11.2384
▁LIVE	-11.2386
▁stake	-11.2386
▁chemical	-11.2387
▁Cure	-11.2388
▁Conan	-11.2388
▁discovery	-11.2389
▁powers	-11.2389
ING	-11.239
▁weigh	-11.2391
▁Edwards	-11.2392
▁Allies	-11.2393
▁Alternative	-11.2393
▁represents	-11.2397
▁Reviews	-11.2397
▁Rivers	-11.2399
va	-11.2403
ging	-11.2403
▁negotiations	-11.2406
▁grill	-11.2416
▁presenter	-11.2416
ical	-11.2418
Americans	-11.242
▁Created	-11.2423
▁Penn	-11.2423
▁Roe	-11.2431
▁degrees	-11.2436
▁households	-11.2438
▁sharp	-11.2444
▁mysterious	-11.2453
▁backlash	-11.2459
▁Snapchat	-11.2459
▁slip	-11.2459
▁1950	-11.2459
▁Investment	-11.2459
▁electricity	-11.2459
▁Spencer	-11.246
▁Wildlife	-11.246
▁leather	-11.246
▁Innovation	-11.246
▁Southgate	-11.2461
▁Electric	-11.2461
▁Liberty	-11.2461
▁organic	-11.2462
▁Mariah	-11.2462
▁Sitting	-11.2462
▁Injury	-11.2462
▁homemade	-11.2464
▁somebody	-11.2464
▁Stands	-11.2465
▁skill	-11.2465
▁Associated	-11.2465
▁Radical	-11.2467
ze	-11.2468
▁Pete	-11.2471
▁shadow	-11.2475
▁Danger	-11.2475
▁method	-11.2476
▁Loan	-11.2476
▁Customer	-11.2477
▁Outdoor	-11.2477
▁soldier	-11.2481
▁Pastor	-11.2483
▁Ash	-11.2485
▁Crew	-11.249
▁toys	-11.249
ery	-11.2491
▁Sees	-11.2496
▁remembered	-11.25
▁defending	-11.2502
▁Bryan	-11.2504
▁Soldiers	-11.2513
▁celebrations	-11.2517
▁Sa	-11.2517
▁operations	-11.2521
▁Cap	-11.2523
▁lasting	-11.2527
▁covers	-11.2531
▁unit	-11.2535
▁bowl	-11.2535
▁breach	-11.2536
▁introduce	-11.2536
▁nose	-11.2541
▁Torture	-11.2543
▁profits	-11.2547
▁Affleck	-11.2548
▁Benjamin	-11.2548
▁Initiative	-11.2548
▁Istanbul	-11.2548
▁LOOK	-11.2548
▁detention	-11.2548
▁Written	-11.2548
▁hottest	-11.2548
▁cabinet	-11.2549
▁Crackdown	-11.2549
▁uncertainty	-11.2549
ane	-11.2549
▁Competition	-11.255
▁Universal	-11.255
▁Traditional	-11.2551
Girls	-11.2552
▁rapidly	-11.2552
▁Highway	-11.2552
▁Reaches	-11.2553
▁desert	-11.2555
▁surrounded	-11.2555
▁Exit	-11.2555
▁initially	-11.2557
▁pointed	-11.2557
▁gross	-11.2559
▁Simone	-11.2561
▁educational	-11.2562
▁Smile	-11.2562
▁surprisingly	-11.2563
▁Rid	-11.2565
▁tonight	-11.2565
▁Chemical	-11.2568
▁opener	-11.2569
town	-11.2569
▁Lay	-11.2574
▁2,000	-11.2575
▁44	-11.2579
▁Bi	-11.258
Of	-11.2581
tro	-11.2581
▁Singing	-11.2587
founder	-11.259
▁nominees	-11.2591
▁weak	-11.2593
▁plea	-11.2597
▁performing	-11.2597
tion	-11.2601
face	-11.2603
▁colleges	-11.2608
▁pulling	-11.2616
▁disorders	-11.2617
▁recorded	-11.2619
▁Environment	-11.262
▁dressing	-11.2625
▁delays	-11.2626
▁Outrage	-11.2627
▁participate	-11.2627
▁restore	-11.2628
▁Indonesia	-11.2636
▁permanent	-11.2636
▁Haiti	-11.2638
0,000	-11.2639
▁Auction	-11.2639
▁MLB	-11.2639
▁Rohingya	-11.2639
▁petition	-11.2639
▁Television	-11.2639
▁aftermath	-11.2639
▁notorious	-11.2639
▁Rodriguez	-11.2639
▁Dropped	-11.2639
▁Diaz	-11.2639
▁cancelled	-11.2639
▁Castro	-11.2641
▁venture	-11.2641
▁heavily	-11.2641
▁Content	-11.2641
▁Bottom	-11.2641
▁Hannity	-11.2641
▁frozen	-11.2641
▁Twin	-11.2641
▁Myself	-11.2642
▁solar	-11.2643
▁terrifying	-11.2644
▁Harrison	-11.2644
▁forgive	-11.2657
▁emotion	-11.2658
▁Jacob	-11.266
▁aisle	-11.2661
▁$15	-11.2661
▁witnessed	-11.2661
▁streaming	-11.2662
▁Finance	-11.2663
▁Nicola	-11.2664
▁Homeland	-11.2672
▁Fights	-11.2672
▁accusations	-11.2676
▁Workouts	-11.2678
▁recognized	-11.268
▁Strip	-11.2684
▁sisters	-11.2689
▁Scouts	-11.2691
▁Shower	-11.2693
▁surely	-11.2696
▁donors	-11.2701
▁proposals	-11.2703
▁lovers	-11.2704
▁Shoots	-11.2704
▁cricket	-11.2704
yn	-11.2706
▁reject	-11.271
▁Chronic	-11.2712
▁flood	-11.2713
▁9-	-11.2713
▁Riot	-11.2714
▁Talent	-11.2715
▁traveler	-11.2715
▁Op	-11.2715
▁navigate	-11.2718
▁Smoke	-11.272
een	-11.272
▁torture	-11.272
▁Pi	-11.2722
▁ambassador	-11.2723
▁Reported	-11.2726
▁hostages	-11.2727
▁Brought	-11.273
▁Croatia	-11.273
▁Deputy	-11.273
▁Lovato	-11.273
▁imagination	-11.273
▁juice	-11.273
▁Mosul	-11.2731
▁Honeymoon	-11.2731
▁Impeachment	-11.2731
▁contrast	-11.2731
▁motherhood	-11.2732
▁quarterback	-11.2732
▁duo	-11.2732
▁centers	-11.2733
▁Corruption	-11.2736
▁Desert	-11.2736
▁Throughout	-11.2736
▁Reporters	-11.2738
▁desperately	-11.2739
▁interior	-11.2739
▁overnight	-11.2742
▁Stupid	-11.2742
▁Assad	-11.2743
▁VP	-11.2744
▁chic	-11.2744
▁Tape	-11.2745
▁Elect	-11.2749
▁academic	-11.2754
▁Agent	-11.2755
▁Owners	-11.2757
wa	-11.2757
pi	-11.2758
▁longest	-11.2758
▁Prosecutor	-11.2765
▁Duck	-11.2771
▁spaces	-11.2772
▁Bone	-11.2775
▁burn	-11.2775
▁Jen	-11.2781
▁fires	-11.2782
An	-11.2784
▁caring	-11.2785
▁55	-11.2793
▁Considering	-11.2795
▁1,	-11.2796
▁Recalls	-11.28
▁Forum	-11.2803
▁foster	-11.2807
Brien	-11.2809
▁practical	-11.2819
▁gig	-11.2821
▁PTSD	-11.2823
▁Raducanu	-11.2823
▁Simmons	-11.2823
▁Sydney	-11.2823
▁Tesla	-11.2823
▁departure	-11.2823
▁Pratt	-11.2823
▁Wendy	-11.2823
▁Lohan	-11.2823
▁priorities	-11.2823
▁punishment	-11.2823
▁Privacy	-11.2824
▁Peanut	-11.2824
▁referendum	-11.2824
▁Tommy	-11.2824
▁Jazz	-11.2825
▁42	-11.2826
▁Entertainment	-11.2826
▁horrible	-11.2827
▁gunman	-11.2831
▁moon	-11.2831
▁properly	-11.2832
▁Sch	-11.2832
▁Highest	-11.2834
ong	-11.2834
half	-11.2835
▁Gear	-11.2836
▁investigated	-11.2839
▁Ignore	-11.284
▁blaze	-11.2843
▁Shocking	-11.2844
▁Comment	-11.2849
▁Version	-11.285
▁genetic	-11.285
▁string	-11.2851
▁Sent	-11.2852
▁creation	-11.2853
▁fleeing	-11.2856
▁mate	-11.2859
▁noise	-11.2859
▁Arms	-11.2861
▁Beatles	-11.2861
▁Dare	-11.2862
▁headline	-11.2863
▁alarm	-11.2873
▁formal	-11.2884
▁stone	-11.2892
▁Blocks	-11.2895
▁cocktails	-11.2902
▁waters	-11.2903
▁eliminate	-11.2904
▁consistent	-11.2911
▁Ta	-11.2916
▁Heritage	-11.2916
▁NATO	-11.2916
▁Diagnosis	-11.2916
▁Wagner	-11.2916
▁prior	-11.2916
▁Garland	-11.2916
▁Ease	-11.2916
▁Whitney	-11.2917
▁Hottest	-11.2918
▁hungry	-11.2918
▁Floor	-11.2919
▁flip	-11.2919
▁darkness	-11.292
▁Featur	-11.2921
▁Penis	-11.2921
▁prompted	-11.2921
▁Independent	-11.2923
▁Stopped	-11.2924
▁followers	-11.2925
▁3.	-11.2926
ny	-11.2928
▁Gross	-11.2928
▁Newtown	-11.2932
▁involve	-11.2933
▁guarantee	-11.2933
▁delayed	-11.2937
▁Cristian	-11.2939
▁pundits	-11.2944
▁passenger	-11.2947
▁math	-11.2949
▁Surprises	-11.2949
▁maps	-11.295
▁Tourist	-11.2952
▁talented	-11.2952
▁Chi	-11.2957
▁rocket	-11.2962
▁toast	-11.2986
SW	-11.2987
▁arts	-11.299
▁reminds	-11.2991
▁Calories	-11.2996
▁Funds	-11.2997
▁hire	-11.3001
▁celebs	-11.3005
▁Buffalo	-11.301
▁Chancellor	-11.301
▁Kourtney	-11.301
▁Platinum	-11.301
▁Galaxy	-11.301
▁Fifa	-11.301
▁Courtesy	-11.301
▁consumption	-11.301
▁Firing	-11.301
▁heatwave	-11.301
▁permission	-11.301
▁nationwide	-11.3011
▁Incident	-11.3011
▁Twist	-11.3011
▁Lebanon	-11.3011
▁Panic	-11.3012
▁Jonas	-11.3012
▁Negative	-11.3012
▁Swiss	-11.3013
▁Bloom	-11.3013
▁employment	-11.3013
▁Hiring	-11.3013
▁hiding	-11.3017
▁cave	-11.3017
▁stages	-11.302
▁meets	-11.302
▁Fey	-11.3021
▁Compassion	-11.3022
▁24-	-11.3022
▁Busy	-11.3023
▁safer	-11.3024
▁Direct	-11.3031
▁soda	-11.3032
▁conventional	-11.3032
▁dear	-11.3032
▁graduate	-11.3033
▁advanced	-11.3034
▁depends	-11.3036
▁sons	-11.3039
▁Proposes	-11.3042
▁Burning	-11.3043
▁outfits	-11.3046
worth	-11.3046
▁Nurse	-11.3046
▁Robot	-11.3047
ite	-11.3048
▁welcomed	-11.3049
han	-11.3049
▁feminist	-11.3051
▁neighbors	-11.3051
Election	-11.3052
▁aggressive	-11.3054
▁Monster	-11.3055
▁laughing	-11.306
▁increases	-11.3063
▁Ms	-11.3066
▁presents	-11.3067
▁repeat	-11.3068
▁41	-11.3068
sen	-11.3068
▁battles	-11.307
▁Dry	-11.3075
▁Hasn	-11.3079
▁Meals	-11.3086
40	-11.3086
▁islands	-11.3086
▁announces	-11.3087
jo	-11.309
▁Beating	-11.3091
▁Gene	-11.3097
▁Math	-11.3097
▁Lil	-11.3098
0	-11.31
▁adds	-11.3101
▁Quest	-11.3105
▁WHAT	-11.3105
▁glory	-11.3105
▁possibilities	-11.3105
▁tropical	-11.3105
▁overseas	-11.3105
▁Nikki	-11.3105
▁Sustainable	-11.3105
▁Zimmerman	-11.3105
▁Fossil	-11.3106
▁passage	-11.3107
▁Endorsement	-11.3107
▁Estate	-11.3107
▁Floyd	-11.3107
▁hunger	-11.3108
▁sadness	-11.3108
▁militants	-11.3109
▁Sites	-11.3109
▁frustrated	-11.3109
▁Cultural	-11.311
▁Feminism	-11.311
▁breastfeeding	-11.3111
▁Nigerian	-11.3112
▁mall	-11.3114
▁Yorkers	-11.3115
hard	-11.3115
▁stopping	-11.3116
▁vowed	-11.3117
▁Flights	-11.3121
ain	-11.3125
▁wise	-11.3126
▁wildfires	-11.313
▁audiences	-11.3131
▁Saw	-11.3131
▁Gut	-11.3132
▁proved	-11.3133
▁Halt	-11.3139
▁Income	-11.3139
▁citizen	-11.314
▁Humans	-11.3141
▁cookie	-11.3141
▁finger	-11.3145
▁Reflections	-11.3148
▁pose	-11.3152
ray	-11.3157
▁suggestions	-11.3157
▁Letters	-11.3159
ette	-11.3166
▁Stokes	-11.3167
▁Greater	-11.3168
▁crashed	-11.3171
▁spell	-11.3174
▁Hag	-11.3178
▁14-	-11.3179
ui	-11.3182
▁openly	-11.3182
▁incidents	-11.3182
▁viewed	-11.3186
▁Trash	-11.3187
▁Chill	-11.3188
▁Julie	-11.3189
▁resolve	-11.3191
▁industrial	-11.3191
▁unions	-11.3195
▁gut	-11.3196
▁freak	-11.3198
▁sandwich	-11.3198
▁refer	-11.3201
▁Relations	-11.3201
▁Etiquette	-11.3201
▁Platform	-11.3201
▁beneath	-11.3201
▁competing	-11.3201
▁funniest	-11.3201
▁furniture	-11.3201
▁heritage	-11.3201
▁confusing	-11.3201
▁chapter	-11.3201
▁AND	-11.3201
▁Partnership	-11.3201
▁Adoption	-11.3201
▁Kobe	-11.3202
▁Palin	-11.3203
▁Fifth	-11.3203
▁visual	-11.3204
▁Surviving	-11.3204
▁Humanity	-11.3205
▁competitive	-11.3205
▁popularity	-11.3205
▁Simply	-11.3205
▁Either	-11.3206
▁Barry	-11.3207
▁Hannah	-11.3207
use	-11.3209
▁Confessions	-11.3209
▁intention	-11.3211
▁Mario	-11.3216
▁metal	-11.3217
▁Agrees	-11.3218
away	-11.3218
▁established	-11.3218
▁mountains	-11.3222
▁locked	-11.3222
▁Everybody	-11.3225
Men	-11.3226
▁seventh	-11.323
▁woke	-11.3234
world	-11.3234
▁critic	-11.3234
▁38	-11.3236
▁Visits	-11.3239
▁tank	-11.324
▁migrant	-11.324
▁pioneer	-11.3241
▁Migrant	-11.3241
▁Soldier	-11.3241
▁sacrifice	-11.3241
▁Zone	-11.3241
▁miracle	-11.3241
inspired	-11.3244
▁strangers	-11.3244
which	-11.3244
▁apple	-11.3246
▁Roots	-11.3249
▁bone	-11.3255
▁Actors	-11.3258
▁crush	-11.3258
▁Mel	-11.3267
▁clubs	-11.3267
▁Tourists	-11.3268
Di	-11.3269
▁Foot	-11.327
▁PR	-11.3271
▁fails	-11.3272
▁Bears	-11.3275
▁72	-11.3276
ji	-11.3278
▁broad	-11.3278
ence	-11.3278
▁Efforts	-11.3279
▁Heroin	-11.328
▁murdered	-11.329
▁Current	-11.329
▁passionate	-11.3291
▁instant	-11.3292
▁gains	-11.3293
▁Solve	-11.3293
▁Fellow	-11.3298
▁Gawker	-11.3298
▁Gisele	-11.3298
▁Sikh	-11.3298
▁appreciation	-11.3298
▁enemy	-11.3298
▁influential	-11.3298
▁Kendrick	-11.3298
▁curb	-11.3298
▁Nathan	-11.3298
▁genius	-11.3299
▁hurricane	-11.3299
▁Including	-11.33
▁stomach	-11.33
▁democratic	-11.3302
▁unveiled	-11.3303
get	-11.3304
▁disturbing	-11.3305
ib	-11.3306
▁establishment	-11.3307
▁worn	-11.3307
▁Helen	-11.3314
▁Upton	-11.3318
▁Discovered	-11.3319
▁Appear	-11.3322
▁attitudes	-11.3323
▁Hacks	-11.3328
▁sixth	-11.3333
▁motivation	-11.3336
▁Deserves	-11.3338
▁Firm	-11.3338
▁Scout	-11.334
Hamilton	-11.3342
▁stayed	-11.3343
▁oh	-11.3343
game	-11.3344
▁drawing	-11.3344
▁Runner	-11.3346
▁Heels	-11.3348
too	-11.335
▁retreat	-11.335
▁buzz	-11.3351
▁Grab	-11.3352
▁halt	-11.3354
▁en	-11.3357
▁invest	-11.336
ip	-11.3371
ez	-11.3372
uck	-11.3375
▁Shirt	-11.3378
▁Triple	-11.338
12	-11.3381
▁seeks	-11.3381
▁spreading	-11.3389
▁cancel	-11.339
▁brains	-11.3391
▁47	-11.3392
▁Struggles	-11.3393
▁bare	-11.3394
▁bond	-11.3394
▁Berkeley	-11.3395
▁Catherine	-11.3395
▁Klopp	-11.3395
▁Sheffield	-11.3395
▁Wrote	-11.3395
▁swimming	-11.3395
▁stance	-11.3395
▁Derek	-11.3395
▁equipment	-11.3395
▁Spent	-11.3395
▁Treasury	-11.3396
▁belly	-11.3397
▁relevant	-11.3397
▁backyard	-11.3398
▁Sophie	-11.3398
▁Dramatic	-11.3398
▁Besides	-11.3398
that	-11.3399
▁Except	-11.34
▁percentage	-11.3401
▁stupid	-11.3401
▁Lifestyle	-11.3402
▁Andrea	-11.3402
▁Exchange	-11.3404
▁Arnold	-11.3405
▁Promote	-11.3406
▁riot	-11.3409
▁implications	-11.341
▁collapsed	-11.3412
▁Gang	-11.3414
▁chase	-11.3415
▁tap	-11.3416
▁Lands	-11.3416
▁Businesses	-11.3418
25	-11.3419
▁Stormy	-11.3419
▁Programs	-11.3421
▁ICE	-11.3421
▁Yo	-11.3421
▁emerge	-11.343
▁Breath	-11.3433
With	-11.3437
▁minor	-11.3438
runner	-11.3439
rin	-11.344
Super	-11.3441
Last	-11.3443
▁Walter	-11.3443
▁Shots	-11.3446
▁Franken	-11.3447
▁Beats	-11.345
▁rolling	-11.3453
"?	-11.3457
▁photographs	-11.3458
▁Brooks	-11.3458
▁withdraw	-11.3462
ran	-11.3463
▁Failing	-11.3464
▁Damn	-11.3466
▁performances	-11.3468
▁Weeks	-11.3469
▁sole	-11.3469
ek	-11.3469
maker	-11.3481
▁Cope	-11.3483
▁VMAs	-11.3487
▁sheer	-11.3488
▁99	-11.3488
▁Tools	-11.3493
▁decor	-11.3493
▁Responsibility	-11.3494
▁bacon	-11.3494
▁embracing	-11.3494
▁Marilyn	-11.3494
▁Cliff	-11.3494
▁dramatically	-11.3495
▁Abbey	-11.3496
▁Lance	-11.3497
▁Lively	-11.3497
▁Parkland	-11.3497
▁replacement	-11.3498
▁Stroke	-11.3498
▁Megan	-11.3499
▁Outrageous	-11.35
▁serves	-11.3502
▁myth	-11.3504
▁motion	-11.3507
▁relatives	-11.3511
▁accomplished	-11.3512
▁dominated	-11.3514
▁formula	-11.3516
▁Stigma	-11.3523
▁shoulder	-11.3525
▁behalf	-11.3525
▁Carl	-11.3529
▁achieved	-11.3529
▁Wells	-11.3532
part	-11.3532
▁Holds	-11.3533
▁Main	-11.3534
Most	-11.3534
▁Aston	-11.3535
▁reactions	-11.3535
Harry	-11.354
▁Screening	-11.3542
▁Bath	-11.3543
▁$4	-11.3545
▁Minute	-11.3547
▁seekers	-11.3549
▁$7	-11.3549
▁Prayer	-11.3549
▁regional	-11.355
▁Wash	-11.3552
▁Links	-11.3554
▁sneak	-11.3558
▁Hole	-11.3559
▁Rail	-11.3562
port	-11.3573
▁challenged	-11.3576
▁dig	-11.3578
▁Harm	-11.3582
▁Colleges	-11.3582
▁Reunite	-11.3586
▁Physical	-11.3586
▁Toast	-11.3587
▁Erik	-11.3588
▁Streets	-11.3589
ese	-11.3591
▁accepting	-11.3591
▁COP	-11.3593
▁innovative	-11.3594
▁Armstrong	-11.3594
▁Nelson	-11.3594
▁thus	-11.3594
▁homesubmissions	-11.3594
▁communications	-11.3594
▁undocumented	-11.3594
▁Westminster	-11.3594
▁Basically	-11.3594
▁assistant	-11.3594
▁hatred	-11.3594
▁PSA	-11.3594
▁Oval	-11.3594
▁princess	-11.3595
▁workforce	-11.3595
▁spectrum	-11.3595
▁humanitarian	-11.3596
▁ridiculous	-11.3596
▁Teaser	-11.3597
▁promoting	-11.3599
▁volunteer	-11.3599
▁Mouth	-11.3602
▁Bon	-11.3602
▁coat	-11.3606
▁raw	-11.3606
▁Sneak	-11.3615
▁knee	-11.3622
gi	-11.3625
▁flavors	-11.3629
▁Fees	-11.3632
▁Warn	-11.3637
▁achieving	-11.364
▁tune	-11.3641
▁legally	-11.3641
▁signal	-11.3643
▁Trail	-11.3643
▁substance	-11.3643
▁tension	-11.3644
▁strongly	-11.3645
▁Standard	-11.3647
▁resist	-11.3651
More	-11.3652
▁Portrait	-11.3652
▁Piece	-11.3654
▁intentions	-11.3655
▁amounts	-11.3657
ily	-11.366
▁Dealing	-11.3662
ou	-11.3663
▁Mine	-11.3665
▁Characters	-11.3669
▁methods	-11.3675
▁Marry	-11.3676
▁Tie	-11.3679
▁tall	-11.368
▁thin	-11.3693
▁bisexual	-11.3694
▁Verstappen	-11.3694
▁daunting	-11.3694
▁disabled	-11.3694
▁sacred	-11.3694
▁threw	-11.3694
▁essay	-11.3694
▁Debbie	-11.3694
▁Denmark	-11.3694
▁Flowers	-11.3694
▁contemporary	-11.3695
▁questioned	-11.3695
▁Spa	-11.3696
▁port	-11.3697
▁gluten	-11.3697
▁accountable	-11.3698
▁Purpose	-11.3699
▁Romance	-11.37
▁predict	-11.3701
▁Sexism	-11.3701
▁Fabulous	-11.3701
▁combined	-11.3702
▁Neo	-11.3706
▁Hills	-11.3714
gle	-11.3718
▁Getty	-11.3719
▁fairly	-11.372
▁Scared	-11.372
▁replaced	-11.3721
▁Desperate	-11.3722
▁mail	-11.3735
ile	-11.3736
▁regard	-11.3741
▁barriers	-11.3742
Baby	-11.3743
▁arrival	-11.3747
▁phase	-11.3747
▁frustration	-11.3747
▁Dessert	-11.3747
▁Politician	-11.3747
▁Contract	-11.3748
▁civilian	-11.3749
▁Ticket	-11.375
▁thousand	-11.3751
▁Adams	-11.3763
▁landed	-11.3764
lan	-11.3765
▁Toddlers	-11.3774
▁remained	-11.3778
▁owe	-11.3784
▁providers	-11.3785
▁Bro	-11.3787
▁discipline	-11.3791
Are	-11.3791
▁interviewed	-11.3795
▁Furniture	-11.3796
▁silly	-11.3796
▁racing	-11.3796
▁unemployment	-11.3796
▁quake	-11.3796
▁festive	-11.3796
▁filing	-11.3796
▁PGA	-11.3797
▁wildlife	-11.3797
▁Especially	-11.3798
▁FIFA	-11.3798
▁Glamour	-11.3798
▁superstar	-11.3798
▁reducing	-11.3799
▁Pledge	-11.3799
▁Convicted	-11.38
▁harmful	-11.38
▁op	-11.38
▁refreshing	-11.3801
▁realizing	-11.3801
▁Sued	-11.3802
▁Setting	-11.3806
▁Yorker	-11.3807
▁worrying	-11.3807
▁billions	-11.3807
▁approaches	-11.3808
▁2021	-11.3808
▁Brands	-11.3809
▁matches	-11.3809
▁Woody	-11.381
▁constitutional	-11.381
tra	-11.3811
▁Measure	-11.3812
▁articles	-11.3817
▁Wi	-11.3819
▁Queens	-11.3822
ik	-11.3828
▁Fathers	-11.3838
▁Donors	-11.384
▁Visiting	-11.3841
Will	-11.3846
▁update	-11.3848
▁Mega	-11.3852
▁lover	-11.3855
▁electronic	-11.3855
▁Je	-11.3859
▁Sexually	-11.386
qua	-11.3861
ked	-11.3871
▁toll	-11.3881
▁2015.	-11.3882
▁Kicks	-11.3882
▁convince	-11.3887
▁brush	-11.3887
▁Returning	-11.3894
▁Dennis	-11.3899
▁Stuart	-11.3899
▁YORK	-11.3899
▁glad	-11.3899
▁communicate	-11.3899
▁entitled	-11.3899
▁Chipotle	-11.3899
▁stabbed	-11.3899
▁Finland	-11.3899
▁Reserve	-11.3899
▁Unusual	-11.3899
▁Stephanie	-11.3899
▁Terry	-11.3899
▁disappointment	-11.3899
▁Bruno	-11.3899
▁executives	-11.3899
▁Legendary	-11.39
▁FCC	-11.39
▁Heather	-11.39
▁damaging	-11.39
▁managing	-11.3901
▁Struggling	-11.3901
▁Disneyland	-11.3902
▁detained	-11.3903
ack	-11.3904
▁filmed	-11.3904
▁mindset	-11.3905
▁Coco	-11.3905
▁embarrassing	-11.3905
▁merely	-11.3906
▁Corey	-11.3907
▁disappointed	-11.3911
▁leaked	-11.3911
▁soaring	-11.3915
▁Troll	-11.3916
▁Pleads	-11.3918
▁groom	-11.392
▁argued	-11.3921
fully	-11.3922
▁Finale	-11.3922
▁Leg	-11.3923
ged	-11.3924
▁lit	-11.3927
▁1-1	-11.3927
▁neighbor	-11.393
▁blonde	-11.3932
▁damaged	-11.3939
changing	-11.3948
Abortion	-11.3949
Daily	-11.3949
▁invite	-11.395
Very	-11.395
▁struggled	-11.395
▁Pasta	-11.3952
▁volunteers	-11.3952
▁nights	-11.3957
▁Celtic	-11.3958
▁scientist	-11.3958
▁therapist	-11.3958
▁Whale	-11.3959
▁achievement	-11.396
▁Favor	-11.396
fe	-11.3961
▁Deportation	-11.3962
▁burger	-11.3965
▁Confront	-11.397
▁rumors	-11.3974
▁Dollar	-11.3974
▁Hanks	-11.3992
▁Iron	-11.3992
▁twist	-11.3995
▁Meme	-11.3998
▁Consumers	-11.3999
▁couch	-11.4001
▁Helicopter	-11.4003
▁coalition	-11.4003
▁culinary	-11.4003
▁promising	-11.4003
▁Sofia	-11.4003
▁Trayvon	-11.4003
▁Ryder	-11.4003
▁Luckily	-11.4003
▁Alicia	-11.4003
▁Priest	-11.4003
▁Clarkson	-11.4003
▁tens	-11.4003
▁comprehensive	-11.4004
▁Garth	-11.4005
▁Somehow	-11.4005
▁Windsor	-11.4006
▁Forgotten	-11.4006
▁nearby	-11.4006
▁thriller	-11.4008
▁dignity	-11.4009
▁pole	-11.4009
▁consistently	-11.4011
▁retired	-11.4014
▁Beaches	-11.4016
▁tape	-11.4017
ec	-11.4017
▁Designers	-11.4018
▁Heartbreaking	-11.4018
▁$20	-11.402
▁landing	-11.402
▁Fur	-11.4021
▁knocked	-11.4022
▁threatens	-11.4024
▁Prom	-11.4025
▁Janet	-11.4026
▁clinical	-11.4034
▁Text	-11.4034
▁retailers	-11.4035
ata	-11.4036
▁Flat	-11.4038
$	-11.4044
▁Arm	-11.4044
▁expanding	-11.4045
▁Sold	-11.4051
food	-11.4051
▁compare	-11.4053
worthy	-11.4056
▁Shell	-11.4058
Breaking	-11.406
aged	-11.4062
▁conclusion	-11.4065
▁correspondent	-11.4065
▁ingredient	-11.4065
▁Studio	-11.4065
Size	-11.4066
▁Root	-11.4069
▁Happening	-11.4069
▁circle	-11.407
▁Dem	-11.407
▁Bottle	-11.4072
▁Suggest	-11.4073
org	-11.4073
▁m	-11.4074
Your	-11.4074
▁Franco	-11.4078
▁Flavor	-11.4078
ps	-11.4081
▁assaulted	-11.4081
▁suggesting	-11.4083
ff	-11.4089
▁Pill	-11.4093
car	-11.4093
▁Hospitals	-11.4097
ini	-11.4098
▁Shuts	-11.4101
▁unlike	-11.4104
▁obstacles	-11.4105
▁Guardiola	-11.4107
▁Haaland	-11.4107
▁Hathaway	-11.4107
▁McCartney	-11.4107
▁category	-11.4107
▁despair	-11.4107
▁empathy	-11.4107
▁CrossFit	-11.4108
▁assistance	-11.4108
▁memoir	-11.4108
▁Berry	-11.4108
▁Carbon	-11.4108
▁Southwest	-11.4108
▁aircraft	-11.4108
▁Ramadan	-11.4109
▁bacteria	-11.411
▁plague	-11.4111
▁tourism	-11.4114
▁Curb	-11.4116
▁Sally	-11.4117
ology	-11.4118
▁Gunman	-11.4121
▁motivated	-11.4123
▁Nominees	-11.4124
▁Grown	-11.4125
▁Clearly	-11.4125
▁Ca	-11.4126
yes	-11.4126
see	-11.4127
▁honestly	-11.4129
▁tactics	-11.413
▁nominated	-11.4131
▁Newest	-11.4135
die	-11.4137
▁informed	-11.4137
ious	-11.4138
▁Palm	-11.414
▁recovering	-11.4146
▁screening	-11.4146
ki	-11.4153
▁triumph	-11.4157
▁filming	-11.4159
saving	-11.4161
▁Pieces	-11.4161
lit	-11.4162
Bad	-11.4162
chi	-11.4164
TV	-11.4166
Air	-11.4166
▁Pic	-11.4167
▁Announcement	-11.4174
▁fingers	-11.4175
▁lawmaker	-11.4175
▁Spurs	-11.4178
▁repair	-11.4179
yo	-11.4181
Lo	-11.4184
▁Dish	-11.4188
▁corn	-11.4192
ay	-11.4193
ooney	-11.4195
▁Mrs	-11.4197
▁exhibit	-11.4198
▁Settle	-11.4202
▁undermine	-11.4202
▁crack	-11.4203
▁Sons	-11.4208
vin	-11.4208
▁random	-11.421
▁Voted	-11.421
▁virtual	-11.4212
▁Atkins	-11.4212
▁Exhibit	-11.4213
▁Bacteria	-11.4213
▁Fiorina	-11.4213
▁Glasgow	-11.4213
▁Klum	-11.4213
▁Nassar	-11.4213
▁Pandemic	-11.4213
▁scrutiny	-11.4213
▁suspicion	-11.4213
▁ImageBlog	-11.4213
▁elsewhere	-11.4214
▁sake	-11.4214
▁Premiership	-11.4214
▁Hypocrisy	-11.4215
▁Vanity	-11.4215
ara	-11.4216
▁Reboot	-11.4216
▁Nebraska	-11.4216
▁Hungry	-11.4217
▁Ballet	-11.4217
▁acceptable	-11.4217
▁Nato	-11.4217
▁Squad	-11.4218
▁Draft	-11.4219
▁porn	-11.422
▁starring	-11.4221
▁Kyle	-11.4222
▁reasonable	-11.4223
▁Discusse	-11.4226
ng	-11.4233
▁adopted	-11.4234
▁Sadly	-11.4236
▁charming	-11.4239
▁Les	-11.424
▁Pe	-11.424
▁exception	-11.4241
▁examples	-11.4242
▁Rent	-11.425
▁pasta	-11.4255
▁Steal	-11.4255
▁thankful	-11.4256
▁outdoors	-11.4257
aw	-11.4261
Take	-11.4265
Great	-11.4266
AIDS	-11.4267
▁$6	-11.4268
ob	-11.427
▁Shock	-11.4278
▁Shoe	-11.4283
▁themes	-11.4283
▁Statue	-11.4284
▁Millennial	-11.4286
▁Decade	-11.4286
▁Champion	-11.429
▁Sending	-11.4292
▁Sight	-11.4299
weight	-11.4306
▁divide	-11.4307
▁Ya	-11.4309
▁badly	-11.4311
▁discussing	-11.4313
pa	-11.4314
rate	-11.4314
▁Terrorist	-11.4316
▁Choices	-11.4316
▁Bump	-11.4317
▁Austria	-11.4318
▁Potato	-11.4318
▁touched	-11.4319
▁lips	-11.432
▁vegan	-11.432
▁Exploring	-11.4321
▁Klein	-11.4321
▁Mercedes	-11.4321
▁Pittsburgh	-11.4321
▁Sierra	-11.4321
▁autumn	-11.4321
▁Pippa	-11.4321
▁extent	-11.4321
▁denial	-11.4321
▁Neither	-11.4321
▁Tennis	-11.4321
▁Ph	-11.4321
▁jewelry	-11.4321
▁2016.	-11.4321
▁Underwear	-11.4321
▁adoption	-11.4322
▁consciousness	-11.4322
▁Yesterday	-11.4322
▁coronation	-11.4322
▁3-0	-11.4323
▁courtesy	-11.4323
▁Denial	-11.4323
▁Explained	-11.4323
▁Impossible	-11.4325
▁Accidentally	-11.4326
▁urges	-11.4326
▁glasses	-11.4327
▁nowhere	-11.4328
▁impressed	-11.433
▁Fatally	-11.4331
▁grip	-11.4332
▁stroke	-11.4332
▁Damon	-11.4332
▁cited	-11.4333
▁66	-11.4333
▁youngest	-11.4337
▁Yeah	-11.4338
▁imposed	-11.4338
▁conservatives	-11.4338
▁unity	-11.4339
▁Mon	-11.4339
▁losses	-11.4341
▁Snacks	-11.4347
▁transformed	-11.4348
▁defended	-11.4351
▁climb	-11.4351
▁Route	-11.4353
▁grandparents	-11.4354
▁seasonal	-11.4355
▁Adventures	-11.4359
Make	-11.4361
▁reduced	-11.4365
je	-11.4372
▁Wonderful	-11.4373
Stranger	-11.4376
▁Appeals	-11.4377
▁Ghost	-11.4382
▁retire	-11.4384
▁Trips	-11.4385
▁Drivers	-11.4387
▁Expecting	-11.4392
▁prosecutor	-11.4394
▁checked	-11.4394
▁backed	-11.4395
gg	-11.4396
▁46	-11.4396
▁colleague	-11.4397
ep	-11.4397
▁filmmaker	-11.4398
▁belt	-11.4399
▁continent	-11.44
▁injustice	-11.4406
▁Raid	-11.4406
▁aide	-11.4407
pl	-11.4408
▁Towns	-11.4408
5,000	-11.4411
▁clash	-11.4412
▁Te	-11.4412
▁select	-11.4416
▁compromise	-11.4417
▁draft	-11.4419
▁Bike	-11.4421
Backed	-11.4423
▁Options	-11.4425
▁Sussex	-11.4426
▁Baker	-11.4427
▁Superhero	-11.4427
▁Fortunately	-11.4429
▁Griffin	-11.4429
▁Ralph	-11.4429
▁Solidarity	-11.4429
▁Trudeau	-11.4429
▁vibrant	-11.4429
▁gallery	-11.4429
▁Dubai	-11.4429
▁Lipstick	-11.4429
▁Passover	-11.4429
▁Bradley	-11.443
▁Ro	-11.443
▁Underwood	-11.4431
▁reviews	-11.4431
▁helicopter	-11.4431
▁Solutions	-11.4432
▁patience	-11.4432
▁Painting	-11.4433
▁Wounded	-11.4435
▁Clock	-11.4436
▁Cutting	-11.4436
▁Confidence	-11.4436
▁Showing	-11.4437
▁mile	-11.444
▁ego	-11.4441
▁tricky	-11.4441
fish	-11.4443
▁declined	-11.4445
vi	-11.4446
▁pays	-11.4447
▁Lying	-11.4447
MeToo	-11.4448
▁resigned	-11.4449
▁Cannot	-11.4451
▁IT	-11.4454
ani	-11.4455
▁grass	-11.4455
▁producers	-11.4459
▁Fifty	-11.446
▁Behold	-11.4461
▁Aug	-11.4462
▁explores	-11.4465
▁treasure	-11.447
▁addressing	-11.4473
▁questioning	-11.4474
▁favorites	-11.4481
Top	-11.4482
love	-11.4484
will	-11.4485
▁stream	-11.4485
RuPaul	-11.4485
Night	-11.4485
▁Newly	-11.4486
rk	-11.4489
▁Prep	-11.4494
▁orders	-11.4496
▁links	-11.4496
lew	-11.4497
▁lean	-11.4502
▁filling	-11.4503
-5	-11.4504
▁resident	-11.4505
▁supermarket	-11.4506
▁venue	-11.4506
▁pundit	-11.4506
▁plate	-11.4506
▁shoe	-11.4506
▁Request	-11.4507
▁chart	-11.4509
▁sends	-11.4509
▁retailer	-11.451
▁loose	-11.4511
most	-11.4511
▁Abu	-11.4514
▁800	-11.4522
▁enable	-11.4527
▁Ukrainians	-11.4533
size	-11.4535
▁Laugh	-11.4538
▁attractive	-11.4538
▁chest	-11.4538
▁Accessories	-11.4538
▁syndrome	-11.4538
▁universities	-11.4538
▁worries	-11.4538
▁Etsy	-11.4538
▁trophy	-11.4538
▁Merkel	-11.4538
▁Excited	-11.4539
▁Spotify	-11.4539
trick	-11.4539
▁adaptation	-11.4539
▁Ouch	-11.454
▁Fe	-11.4541
▁Forgiveness	-11.4541
▁Tatum	-11.4541
▁rental	-11.4541
▁confirms	-11.4541
▁Kindness	-11.4542
▁forgiveness	-11.4542
▁Flood	-11.4542
▁Calvin	-11.4542
▁2001	-11.4543
▁rainbow	-11.4543
▁subtle	-11.4544
▁Journalism	-11.4544
▁Alba	-11.4545
▁Paula	-11.4545
▁Juan	-11.4545
▁Spin	-11.4545
▁Markle	-11.4545
▁preventing	-11.4548
▁Lily	-11.4555
▁Acting	-11.4555
▁scare	-11.4555
▁Du	-11.4557
▁Rev	-11.4558
▁ear	-11.4559
▁recommended	-11.456
▁theft	-11.4562
War	-11.4562
▁recalled	-11.4565
▁backing	-11.4571
have	-11.4572
gay	-11.4573
▁Jose	-11.4575
▁Em	-11.4575
▁root	-11.4582
▁Predict	-11.4582
box	-11.4587
▁depend	-11.4587
win	-11.4587
▁Rings	-11.4589
Related	-11.4596
▁stem	-11.46
▁mentally	-11.46
uk	-11.4607
▁commonly	-11.4608
▁bin	-11.4608
▁examine	-11.4611
▁empower	-11.4612
▁Fate	-11.4614
Wing	-11.4617
▁blogs	-11.4618
▁elephant	-11.4619
▁perception	-11.4619
▁conviction	-11.4619
▁Nonprofit	-11.4619
▁infant	-11.462
▁monitor	-11.4622
▁pound	-11.4624
▁Sisters	-11.4627
▁pub	-11.4629
▁bra	-11.4632
▁Prank	-11.4632
ft	-11.4636
om	-11.4636
▁propose	-11.4637
▁Impression	-11.464
▁fortunate	-11.4642
▁urgent	-11.4642
▁fur	-11.4644
▁cells	-11.4646
▁Sings	-11.4649
▁Margaret	-11.4649
▁cuisine	-11.4649
▁Disabilities	-11.4649
▁animated	-11.4649
▁Lionesses	-11.4649
▁Camilla	-11.4649
▁Petition	-11.4649
▁Recognize	-11.4649
▁script	-11.4649
▁Roof	-11.465
▁Organic	-11.465
▁editorial	-11.465
▁Overcome	-11.465
▁Leonardo	-11.4651
▁skip	-11.4651
▁Michele	-11.4651
▁referred	-11.4652
▁Sequel	-11.4652
▁anybody	-11.4652
▁Owen	-11.4652
▁dominant	-11.4653
▁Bowie	-11.4653
▁Betty	-11.4653
▁spray	-11.4653
▁Heavy	-11.4654
▁buried	-11.4654
▁Ar	-11.4654
▁perfection	-11.4656
▁houses	-11.4657
▁Crack	-11.4659
▁Irma	-11.4659
▁answered	-11.466
▁Peek	-11.4661
defining	-11.4662
▁complaint	-11.4662
▁Grilled	-11.4663
▁cheating	-11.4667
▁Farmers	-11.4667
▁Bow	-11.4668
▁Sources	-11.4674
▁essentially	-11.4674
▁seal	-11.4674
▁Rises	-11.468
▁marriages	-11.4684
▁Birds	-11.4685
▁governments	-11.4687
▁Tickets	-11.4703
▁bath	-11.4704
▁Joel	-11.4704
century	-11.4708
First	-11.4708
something	-11.4708
▁hears	-11.4708
▁avoiding	-11.4709
▁Figures	-11.4709
Every	-11.4712
care	-11.4714
▁Attacked	-11.4715
▁ruin	-11.4715
▁strip	-11.4716
ble	-11.4717
▁responding	-11.4718
what	-11.4718
▁Investigate	-11.4722
▁courts	-11.473
▁fathers	-11.473
▁cloud	-11.4731
▁trained	-11.4733
▁instance	-11.4733
▁Weapon	-11.4734
▁revealing	-11.4734
▁spa	-11.4735
▁Writes	-11.4735
▁association	-11.4735
▁Document	-11.4736
▁command	-11.4736
▁abused	-11.4736
▁politician	-11.4738
▁Chip	-11.4739
▁Chain	-11.4739
▁defender	-11.4743
rie	-11.4744
▁x	-11.4745
▁Spy	-11.4746
▁Suspend	-11.4747
▁Bags	-11.4751
▁ally	-11.4755
▁Toilet	-11.4757
▁Bristol	-11.4761
▁Carnival	-11.4761
▁accessories	-11.4761
▁essence	-11.4761
▁philosophy	-11.4761
▁practicing	-11.4761
▁speculation	-11.4761
▁Switzerland	-11.4761
▁Oxford	-11.4761
▁hiring	-11.4761
▁slavery	-11.4761
▁Minority	-11.4761
▁Direction	-11.4762
▁intent	-11.4762
▁Sheeran	-11.4763
▁AT	-11.4763
▁Stanford	-11.4763
▁dip	-11.4764
▁Cycle	-11.4764
▁Enemy	-11.4764
▁Suddenly	-11.4765
▁Circle	-11.4765
▁Venus	-11.4765
▁Limit	-11.4766
▁musician	-11.477
▁fatally	-11.4771
▁Unity	-11.4773
▁tag	-11.4777
▁snap	-11.478
wan	-11.4784
▁breakup	-11.4786
▁Manage	-11.4786
▁Joint	-11.4792
▁Surge	-11.4796
▁sooner	-11.4797
▁delight	-11.4804
▁2005	-11.4806
▁reache	-11.4808
▁airports	-11.4808
▁Define	-11.481
▁Weed	-11.4814
Russia	-11.4818
profile	-11.4821
LGBTQ	-11.4821
▁charm	-11.4824
▁feeding	-11.4829
▁Rocket	-11.4834
▁Listening	-11.4841
▁Inmates	-11.4849
▁Accident	-11.4849
▁Explosion	-11.4849
▁invitation	-11.4849
▁preparation	-11.4849
▁physician	-11.4849
▁medication	-11.4849
▁spy	-11.4851
▁Source	-11.4854
▁existing	-11.4857
▁auction	-11.4858
▁Levels	-11.4862
▁Pushing	-11.4864
▁principles	-11.4864
▁resume	-11.4864
▁Cave	-11.4867
▁casual	-11.487
▁Pollution	-11.4874
▁SCOTUS	-11.4874
▁Verizon	-11.4874
▁Oasis	-11.4874
▁disabilities	-11.4874
▁productivity	-11.4874
▁feast	-11.4874
▁minorities	-11.4874
▁Juice	-11.4874
▁sunny	-11.4875
▁shutdown	-11.4875
▁connections	-11.4875
▁Kingdom	-11.4875
▁Dar	-11.4876
▁Types	-11.4877
▁Library	-11.4877
▁obsession	-11.4877
▁Elite	-11.4877
▁infected	-11.4878
▁cable	-11.4878
▁Empty	-11.4879
cor	-11.488
▁objects	-11.4881
▁blessed	-11.4881
ative	-11.4882
▁virtually	-11.4882
▁flames	-11.4882
▁Creepy	-11.4882
▁Cable	-11.4888
▁Deadline	-11.4889
▁obsessed	-11.4892
▁Multi	-11.4894
▁quietly	-11.4895
▁theaters	-11.4898
▁Surprisingly	-11.4899
▁anticipated	-11.49
▁complain	-11.4901
▁Ivy	-11.4906
pre	-11.4908
▁jumped	-11.4909
▁Po	-11.4916
▁threaten	-11.4927
▁donations	-11.4928
▁62	-11.4932
profit	-11.4934
NSFW	-11.4935
▁Shared	-11.494
nan	-11.4943
az	-11.4944
▁sweat	-11.4948
▁Tomorrow	-11.4952
▁dangers	-11.4963
▁toilet	-11.4963
▁Boots	-11.4964
▁Bedroom	-11.4966
▁chemicals	-11.4969
▁Pushe	-11.4975
▁peers	-11.498
▁Richards	-11.4981
▁Kit	-11.4981
▁eager	-11.4982
▁Afford	-11.4988
▁Amsterdam	-11.4989
▁DiCaprio	-11.4989
▁Hockey	-11.4989
▁Leather	-11.4989
▁Sprout	-11.4989
▁Sturgeon	-11.4989
▁engaging	-11.4989
▁expansion	-11.4989
▁separation	-11.4989
▁testimony	-11.4989
▁Introducing	-11.4989
▁Elementary	-11.4989
▁Disability	-11.4989
▁strategic	-11.499
▁Yale	-11.499
▁Cheney	-11.4991
▁Average	-11.4992
▁Marshall	-11.4993
▁deportation	-11.4993
▁Rebel	-11.4994
▁construction	-11.4995
▁accessible	-11.4996
backed	-11.4996
▁devoted	-11.4996
▁Clarke	-11.4997
▁politically	-11.4998
▁cheaper	-11.4998
Trapped	-11.4999
▁Expose	-11.4999
▁roughly	-11.4999
▁draws	-11.5004
▁messy	-11.5004
▁sweeping	-11.5007
▁Leaked	-11.5007
▁40-	-11.501
▁hopefully	-11.5011
▁Explores	-11.5022
Now	-11.5023
mate	-11.5026
▁GIFs	-11.5026
▁Beck	-11.5029
▁infamous	-11.5029
tch	-11.5031
▁riding	-11.5031
▁pen	-11.5033
▁Donations	-11.5034
▁viewing	-11.5039
ending	-11.5042
▁Updates	-11.5042
▁grows	-11.5046
par	-11.5048
▁Bin	-11.5057
▁posting	-11.5064
▁Bliss	-11.5066
▁terrorists	-11.5069
▁Centers	-11.507
big	-11.5076
▁qualify	-11.5078
▁relative	-11.5078
▁arguments	-11.5078
▁commission	-11.5078
▁Odd	-11.5078
▁Taco	-11.5085
▁portion	-11.5086
▁Banana	-11.5087
▁Shadow	-11.5087
▁Finger	-11.5088
▁Produce	-11.509
▁File	-11.509
▁grain	-11.5094
▁fortune	-11.5097
▁educate	-11.5097
▁thick	-11.5098
▁Darre	-11.5098
▁retail	-11.5099
▁Trauma	-11.5101
▁expose	-11.5102
▁vocal	-11.5102
ai	-11.5103
▁Stein	-11.5104
▁Exxon	-11.5105
▁Witherspoon	-11.5105
▁bridal	-11.5105
▁Craigslist	-11.5105
▁firing	-11.5105
▁Above	-11.5105
▁naked	-11.5105
▁Obsession	-11.5105
▁Status	-11.5105
▁Cardiff	-11.5105
▁Oakland	-11.5105
▁ranks	-11.5105
▁Ahmed	-11.5106
▁Rosie	-11.5106
▁exotic	-11.5108
▁elegant	-11.5108
▁Difficult	-11.5108
▁NSA	-11.5109
▁bitter	-11.5109
▁Sharon	-11.511
▁Goldman	-11.5112
▁artistic	-11.5112
▁brighten	-11.5113
▁blocks	-11.5114
▁western	-11.5114
▁Discovery	-11.5115
▁immune	-11.5115
▁Encourage	-11.5116
▁refus	-11.5121
▁attacking	-11.5127
▁76	-11.5134
Pro	-11.5136
▁troubled	-11.5142
sky	-11.5143
▁Ill	-11.5147
▁pit	-11.5147
Thank	-11.5152
Back	-11.5154
▁SNL	-11.5162
▁Ge	-11.5164
white	-11.5166
going	-11.5166
high	-11.5166
with	-11.5169
▁o	-11.5169
▁$8	-11.5174
▁Newton	-11.5178
Best	-11.518
▁Pair	-11.5184
▁Phillips	-11.5186
▁Upset	-11.5191
▁Clinic	-11.5194
▁Teams	-11.5196
▁quote	-11.5197
▁Kale	-11.5202
▁mo	-11.5202
▁Freak	-11.5204
▁makers	-11.5204
▁Computer	-11.5205
▁vehicles	-11.5207
▁sorts	-11.5208
▁Wealth	-11.5209
▁crown	-11.521
▁incorporate	-11.521
▁95	-11.521
▁Theft	-11.5216
▁Uganda	-11.5219
▁Chefs	-11.522
▁wheel	-11.522
▁Gabriel	-11.5221
▁reception	-11.5221
▁Meryl	-11.5222
▁Mohamed	-11.5222
▁Tournament	-11.5222
▁stigma	-11.5222
▁participation	-11.5222
▁Ginsburg	-11.5222
▁Swimsuit	-11.5222
▁Unemployment	-11.5222
▁Monica	-11.5222
▁Mitchell	-11.5222
▁Sony	-11.5222
▁diplomatic	-11.5222
▁Travi	-11.5222
▁Alert	-11.5223
▁confirmation	-11.5223
▁Throwback	-11.5223
▁Bunny	-11.5224
▁2004	-11.5224
▁Haley	-11.5224
▁Islamist	-11.5225
▁Reflects	-11.5226
▁Hitler	-11.5227
▁ethnic	-11.5228
▁Ballot	-11.5229
▁Acceptance	-11.523
▁loaded	-11.5232
▁Tastemaker	-11.5233
▁Messages	-11.5233
▁repeated	-11.5234
▁Beware	-11.5235
▁handling	-11.5235
▁Rod	-11.5238
▁Painful	-11.5239
▁Titanic	-11.5239
▁Bang	-11.5243
▁Bloody	-11.5248
har	-11.5252
▁shoppers	-11.5258
▁Crying	-11.5266
▁Stranger	-11.5268
▁careers	-11.5269
▁relaxing	-11.5271
▁kicks	-11.5271
Fi	-11.5274
▁prisoners	-11.5275
▁letters	-11.5278
▁Runs	-11.5281
▁completed	-11.5284
Where	-11.5287
hood	-11.5287
▁button	-11.5289
▁reforms	-11.529
▁Arrests	-11.529
▁fabric	-11.5292
▁poses	-11.5297
▁apologises	-11.5298
.'"	-11.5299
ella	-11.5299
▁Christ	-11.5301
▁Rica	-11.5302
▁locations	-11.5304
ino	-11.5306
▁Sentence	-11.5317
▁Leak	-11.5324
▁ditch	-11.5325
▁Gal	-11.5325
▁muscle	-11.5326
▁Athlete	-11.5326
▁temperature	-11.5328
▁Correspondents	-11.5332
▁Regret	-11.5332
▁crisp	-11.5334
▁assets	-11.5338
▁Katherine	-11.534
▁Poehler	-11.534
▁solidarity	-11.534
▁urging	-11.534
▁Species	-11.534
▁honeymoon	-11.534
▁Bernardino	-11.534
▁Olsen	-11.534
▁compelling	-11.534
▁unhappy	-11.5341
▁Carlson	-11.5341
▁LiveScience	-11.5341
▁Temple	-11.5341
▁Northeast	-11.5341
▁Spotted	-11.5341
▁BuzzFeed	-11.5342
▁Desk	-11.5342
▁drunk	-11.5342
▁Scientific	-11.5342
▁newborn	-11.5344
▁annoying	-11.5344
▁THIS	-11.5344
▁Nina	-11.5344
▁ashamed	-11.5345
▁Nike	-11.5347
▁sued	-11.5347
▁Lovers	-11.5347
▁Oldest	-11.5349
▁immigrant	-11.5351
▁overweight	-11.5351
▁Colorful	-11.5351
▁representation	-11.5353
▁dismissed	-11.5354
▁Divided	-11.5357
▁rounded	-11.536
▁Bachelorette	-11.536
US	-11.536
▁Investing	-11.5361
▁Faster	-11.5362
▁Knowing	-11.5367
▁Elected	-11.537
pping	-11.5373
hit	-11.5378
▁Progressives	-11.538
▁21-	-11.5382
▁Hacking	-11.5383
▁fighter	-11.5384
▁Jeans	-11.5386
▁Threatened	-11.5389
▁Raised	-11.5389
▁west	-11.539
▁64	-11.5392
art	-11.5396
▁planes	-11.5396
▁owned	-11.5403
President	-11.5407
eh	-11.541
▁rolls	-11.541
▁pray	-11.5411
▁trigger	-11.5414
▁Militants	-11.5414
▁Suffer	-11.5423
▁topics	-11.5424
▁Ode	-11.5424
▁Mountains	-11.5427
▁feared	-11.5429
▁Jos	-11.5429
▁steal	-11.543
▁maker	-11.5436
Care	-11.5444
▁humble	-11.5448
▁application	-11.5449
▁Destination	-11.5449
▁client	-11.5449
▁Window	-11.5449
▁Auto	-11.545
▁Rival	-11.545
▁Friendship	-11.545
▁regrets	-11.545
▁Sin	-11.5451
▁representative	-11.5451
▁finale	-11.5452
▁Civilians	-11.5452
▁mere	-11.5453
▁w	-11.5454
▁dare	-11.5458
▁unfair	-11.5459
Semitism	-11.546
▁coffin	-11.546
▁drew	-11.546
▁frustrating	-11.546
▁Crawford	-11.546
▁Rafael	-11.546
▁Wheelchair	-11.546
▁Fulham	-11.546
▁Wintour	-11.546
▁therefore	-11.546
▁properties	-11.546
▁MLK	-11.5461
▁Activity	-11.5461
▁Doubt	-11.5461
▁Analysis	-11.5462
▁primarily	-11.5462
▁junk	-11.5462
▁uniform	-11.5462
▁rugby	-11.5462
▁hall	-11.5463
▁Stance	-11.5463
▁Kept	-11.5464
▁Built	-11.5465
▁hometown	-11.5466
▁Brandon	-11.5467
▁Theresa	-11.5468
▁Awful	-11.5468
▁Looked	-11.5471
▁Honey	-11.5472
▁100,000	-11.5472
▁tide	-11.5473
▁Eats	-11.5476
▁Duty	-11.5476
▁Criticize	-11.5478
▁dropping	-11.5481
▁burned	-11.5481
▁Walt	-11.5482
▁inappropriate	-11.5488
▁advances	-11.549
▁Challenger	-11.549
▁roads	-11.55
▁pile	-11.5501
▁Counter	-11.5505
▁denying	-11.5505
ker	-11.5505
boy	-11.5514
dle	-11.5515
▁investigators	-11.5516
▁Desserts	-11.5518
▁ratings	-11.5521
ski	-11.5522
▁Symptoms	-11.5523
▁Seal	-11.5528
▁Remarks	-11.5535
▁Relax	-11.5538
▁Roast	-11.5542
selling	-11.5542
▁designs	-11.5543
▁fruits	-11.5544
▁establish	-11.5546
▁stereotypes	-11.5557
▁Delay	-11.5558
gan	-11.5567
▁Cit	-11.5568
▁file	-11.5568
▁snacks	-11.557
▁frame	-11.557
▁titled	-11.5571
▁Tensions	-11.5573
▁Smartphone	-11.5574
▁Actual	-11.5575
▁Kat	-11.5575
▁intervention	-11.5577
▁consideration	-11.5578
▁Heaven	-11.5578
▁Witness	-11.558
▁Sells	-11.558
▁awful	-11.5581
▁absolute	-11.5582
▁Rebecca	-11.5582
▁applied	-11.5582
▁atmosphere	-11.5582
▁integrity	-11.5582
▁penalties	-11.5582
▁smiling	-11.5582
▁stabbing	-11.5582
▁visible	-11.5582
▁Emmanuel	-11.5582
▁reproductive	-11.5582
▁removing	-11.5582
▁Channing	-11.5582
▁disability	-11.5582
▁slammed	-11.5582
versus	-11.5582
▁software	-11.5582
▁Played	-11.5582
▁Perez	-11.5582
▁Insane	-11.5582
▁manner	-11.5583
▁Rowling	-11.5583
▁Lynn	-11.5583
Embracing	-11.5586
▁Worldwide	-11.5588
▁Marks	-11.5588
▁cameras	-11.5589
▁shy	-11.559
▁Felt	-11.5591
15	-11.5592
▁NYT	-11.5593
▁Unlikely	-11.5593
▁Pa	-11.5593
▁sustained	-11.5594
▁closest	-11.5596
▁Hints	-11.5597
▁wishes	-11.5597
▁Coup	-11.5599
▁bosses	-11.5599
▁Label	-11.56
▁tastes	-11.5601
▁predicted	-11.5601
▁Draws	-11.5602
▁slice	-11.5606
▁stunt	-11.5609
17	-11.5611
▁Patrol	-11.5614
▁separated	-11.5617
▁'60	-11.5619
▁crossed	-11.5628
▁affairs	-11.5629
▁Values	-11.5631
▁54	-11.5635
▁safely	-11.5637
▁Va	-11.5638
Term	-11.5651
Frozen	-11.5651
Happy	-11.5651
▁Offering	-11.5652
Women	-11.5652
▁argues	-11.5655
▁Grill	-11.566
▁Younger	-11.5661
▁Greene	-11.5665
▁moderate	-11.5666
▁punch	-11.5666
▁Dump	-11.5666
▁wonders	-11.5668
▁19-	-11.5669
▁burst	-11.5678
▁sink	-11.5681
▁travels	-11.5684
▁Extend	-11.5689
ium	-11.569
▁Headline	-11.5695
▁Reflect	-11.5699
▁prescription	-11.5699
▁heaven	-11.57
▁Tradition	-11.57
▁militant	-11.57
▁vegetable	-11.57
▁styles	-11.57
▁Guilt	-11.5702
▁Jamaica	-11.5702
▁Preview	-11.5702
▁Airbnb	-11.5705
▁Alliance	-11.5705
▁Widow	-11.5705
▁battling	-11.5705
▁nursing	-11.5705
▁prayer	-11.5705
▁verdict	-11.5705
▁welfare	-11.5705
▁Contemporary	-11.5705
▁Wolves	-11.5705
▁Sundance	-11.5705
▁Drought	-11.5705
▁Solange	-11.5705
▁rejection	-11.5706
▁Kidney	-11.5706
▁techniques	-11.5707
▁Beast	-11.5707
▁Graduation	-11.5707
▁bucket	-11.5708
▁Uncle	-11.5708
▁occupation	-11.5708
▁Devastating	-11.5709
▁Soft	-11.571
▁walks	-11.571
▁Lego	-11.5711
▁Quality	-11.5712
▁Pitch	-11.5714
▁obtained	-11.5714
▁Viewers	-11.5715
▁wrapped	-11.5715
▁Involved	-11.5715
▁pill	-11.5716
▁Menu	-11.5716
▁Tap	-11.5717
▁Bought	-11.5718
▁uncovered	-11.5718
▁commander	-11.572
▁hired	-11.5721
mar	-11.5723
▁Developing	-11.5727
▁tons	-11.5728
ph	-11.5729
▁Loud	-11.5731
minded	-11.5737
▁represented	-11.5738
▁Removed	-11.5742
▁Stealing	-11.5744
▁Har	-11.5744
▁85	-11.5745
▁Inn	-11.5746
▁mentioned	-11.5747
▁scored	-11.5747
▁Mob	-11.5749
ell	-11.5753
▁Allowed	-11.5758
▁Inspires	-11.5759
▁winds	-11.576
▁Caused	-11.5763
▁liked	-11.5766
▁outcomes	-11.5771
len	-11.5774
rich	-11.5775
House	-11.5776
Little	-11.5776
▁fuels	-11.5777
step	-11.5778
▁shaped	-11.5779
▁discussions	-11.5779
▁forecast	-11.578
▁windows	-11.5781
Walking	-11.5781
▁chill	-11.5784
Well	-11.5785
▁Jar	-11.5789
▁stun	-11.5791
▁Crush	-11.5795
▁damn	-11.5802
▁recording	-11.5803
▁insists	-11.5805
▁bully	-11.5807
▁opponents	-11.5808
▁raid	-11.5811
▁labels	-11.5811
▁Springs	-11.5815
▁Hackers	-11.5817
▁apologize	-11.5818
▁trains	-11.5822
▁clever	-11.5822
▁protesting	-11.5822
▁Malaysia	-11.5826
▁twins	-11.5826
Too	-11.5827
▁profession	-11.5827
▁regulator	-11.5827
▁technique	-11.5827
▁roof	-11.5829
▁Glam	-11.5829
▁cyber	-11.5829
▁Streep	-11.5829
▁sheriff	-11.5829
Semitic	-11.5829
▁Empathy	-11.5829
▁ceiling	-11.5829
▁enthusiasm	-11.5829
▁troubling	-11.5829
▁Ava	-11.5829
▁clarity	-11.5829
▁Lottery	-11.5829
▁Expectations	-11.5829
▁lipstick	-11.5829
▁Shore	-11.5829
▁architecture	-11.5829
▁Diaries	-11.5829
▁Tinder	-11.5829
▁Grocery	-11.5829
▁Coachella	-11.583
▁unhealthy	-11.583
▁swept	-11.583
▁Gwen	-11.583
▁Lineker	-11.583
▁predictions	-11.583
▁Shearer	-11.583
▁fever	-11.583
▁cognitive	-11.583
▁stable	-11.5831
▁convincing	-11.5831
▁Poem	-11.5832
▁Responsible	-11.5832
▁chefs	-11.5833
darndest	-11.5833
▁Beloved	-11.5833
▁Endangered	-11.5833
▁baking	-11.5833
▁sophisticated	-11.5833
▁Habit	-11.5834
▁Privilege	-11.5835
▁CA	-11.584
▁devastated	-11.584
rt	-11.5841
▁costumes	-11.5842
▁muscles	-11.5844
▁Cal	-11.5846
▁creatures	-11.5846
▁eco	-11.5847
▁2:	-11.5848
▁founded	-11.5849
dressed	-11.585
▁proves	-11.585
▁Onion	-11.5851
▁Superman	-11.5855
▁Wilde	-11.5858
▁Lab	-11.5858
pro	-11.5863
▁flower	-11.5864
▁investing	-11.5864
LA	-11.5867
person	-11.5867
▁grounds	-11.587
▁Mara	-11.5872
▁ma	-11.5872
▁asleep	-11.5875
▁$50	-11.5875
▁grave	-11.5878
▁2015,	-11.588
cha	-11.588
▁Hu	-11.588
▁Erl	-11.5882
▁Stereotypes	-11.5887
▁defends	-11.589
▁interviews	-11.5892
▁boats	-11.5898
▁Oz	-11.59
▁Ram	-11.5901
Worthy	-11.5903
themed	-11.5903
hal	-11.5912
▁chips	-11.5913
▁drives	-11.5915
▁Treats	-11.5916
90	-11.5917
▁Ward	-11.5918
▁Exist	-11.5919
▁Lione	-11.5921
▁festivals	-11.5924
▁Chart	-11.5925
▁recommendations	-11.5927
▁stops	-11.5928
▁Loans	-11.5932
▁Stream	-11.5938
▁generate	-11.5943
▁translate	-11.5943
▁Pure	-11.5948
▁pan	-11.595
shot	-11.595
▁VA	-11.5951
▁Rey	-11.5952
▁Assembly	-11.5954
▁Minneapolis	-11.5955
▁Tropical	-11.5955
▁advocacy	-11.5955
▁ambitious	-11.5955
▁deciding	-11.5955
▁graduation	-11.5955
▁Vitamin	-11.5955
▁timing	-11.5955
▁array	-11.5955
▁Nigel	-11.5955
▁Maternity	-11.5955
▁Nationwide	-11.5956
▁Christine	-11.5956
▁championship	-11.5956
▁Editorial	-11.5956
▁Tucker	-11.5956
▁Rita	-11.5957
▁2003	-11.5957
Stop	-11.5958
▁Creativity	-11.5959
▁glamorous	-11.5961
▁Fried	-11.5961
▁twin	-11.5961
▁legitimate	-11.5961
▁renewed	-11.5963
▁lowest	-11.5964
▁mat	-11.5965
▁seized	-11.5966
▁Flower	-11.5968
▁Delivery	-11.5968
▁Letterman	-11.5969
▁complained	-11.5973
▁lip	-11.5974
▁Hurts	-11.5976
▁Insider	-11.5978
Lago	-11.5979
▁Norman	-11.5982
▁assumed	-11.5982
ters	-11.5983
▁qualifying	-11.5985
▁Butler	-11.5986
▁Bann	-11.5987
▁Admit	-11.5991
▁Rage	-11.5992
▁barbecue	-11.6
▁judges	-11.6002
▁Spacey	-11.6004
marital	-11.6008
▁Claus	-11.601
▁outlets	-11.6012
▁memo	-11.6014
▁boots	-11.6015
▁Thankful	-11.6017
▁jumping	-11.6021
▁sights	-11.6021
▁honoring	-11.6023
▁belong	-11.6024
30	-11.6024
▁Designed	-11.6025
she	-11.6027
scale	-11.603
Fox	-11.603
▁impacts	-11.603
dis	-11.6031
▁crowded	-11.6032
Ex	-11.6033
ration	-11.6037
▁balls	-11.6038
▁transport	-11.6039
▁Si	-11.6041
▁Ja	-11.6041
lia	-11.6043
▁debates	-11.6043
▁Truths	-11.6044
fire	-11.6044
▁Lets	-11.6051
▁interact	-11.6056
host	-11.6057
▁Midwest	-11.6058
▁monarch	-11.6058
▁storms	-11.6059
▁wings	-11.606
▁Groom	-11.6061
▁Announce	-11.6067
▁Bias	-11.6068
▁mode	-11.607
▁Oppose	-11.6071
▁Scare	-11.6075
▁endure	-11.6076
low	-11.6077
▁Targets	-11.6081
eye	-11.6081
AUDIO	-11.6083
▁NAACP	-11.6083
▁Vulnerable	-11.6083
▁ignorance	-11.6083
▁qualities	-11.6083
▁Gymnastics	-11.6083
▁Yorkshire	-11.6083
▁Swimming	-11.6083
▁Gardner	-11.6083
▁Lambert	-11.6083
▁airplane	-11.6083
By	-11.6083
▁Trafficking	-11.6083
▁accountability	-11.6084
▁involvement	-11.6084
▁conflicts	-11.6084
▁Watchdog	-11.6084
▁tracks	-11.6085
▁Tracy	-11.6085
▁Active	-11.6086
▁Published	-11.6086
▁Grateful	-11.6087
▁heavyweight	-11.6087
▁Fierce	-11.6087
▁journalism	-11.6087
▁element	-11.6088
▁Rumor	-11.6089
▁sexism	-11.6089
▁Nate	-11.609
▁Athletics	-11.609
▁Vegetarian	-11.609
▁Apologize	-11.6091
▁lab	-11.6091
▁graphic	-11.6091
ification	-11.6093
▁discusses	-11.6094
▁classified	-11.6094
▁hostage	-11.6094
▁Spray	-11.6095
▁Evil	-11.6096
▁Partners	-11.6096
▁Buffett	-11.6097
▁k	-11.6098
shi	-11.6099
ick	-11.6099
▁siblings	-11.61
▁county	-11.6101
▁Exposed	-11.6102
▁beef	-11.6105
▁Sort	-11.6105
▁Protections	-11.6106
mile	-11.6109
tan	-11.6114
▁Lou	-11.6125
tech	-11.613
▁blocked	-11.6133
▁SAG	-11.6135
▁Ally	-11.6136
Com	-11.6137
▁contributions	-11.6137
▁leak	-11.6144
bound	-11.6144
▁Lots	-11.6148
▁Warming	-11.6149
▁awarded	-11.6151
Ro	-11.6154
▁Tracking	-11.6157
POLL	-11.6159
Even	-11.616
chief	-11.6162
▁57	-11.6163
▁Arena	-11.6164
▁disasters	-11.6166
100	-11.6167
▁Tool	-11.6168
▁disappear	-11.617
▁Earn	-11.6171
▁Hi	-11.6172
▁kills	-11.6174
Mom	-11.6175
▁Expand	-11.6176
▁greatly	-11.6178
▁Wing	-11.6179
▁quo	-11.6184
Mo	-11.6191
▁meetings	-11.6197
oh	-11.6199
▁Option	-11.6199
▁institution	-11.6203
▁Walks	-11.6203
▁84	-11.6204
▁Instant	-11.6205
▁generous	-11.6208
▁Virtual	-11.621
▁CEOs	-11.621
▁Cincinnati	-11.6212
▁Cindy	-11.6212
▁Dilemma	-11.6212
▁Lupita	-11.6212
▁Pioneer	-11.6212
▁brink	-11.6212
▁facility	-11.6212
▁inauguration	-11.6212
▁industries	-11.6212
▁sequel	-11.6212
▁waking	-11.6212
▁Restrictions	-11.6212
▁Rural	-11.6212
▁Neutrality	-11.6212
▁installment	-11.6213
▁Krugman	-11.6213
▁anthem	-11.6213
▁crackdown	-11.6213
▁operating	-11.6213
▁Poetry	-11.6213
▁cozy	-11.6213
▁Trent	-11.6213
▁Kaine	-11.6213
▁vegetarian	-11.6214
▁artwork	-11.6214
▁fiction	-11.6215
▁Dior	-11.6215
▁Holly	-11.6216
▁unnecessary	-11.6217
▁Illustrated	-11.6217
▁Charter	-11.6219
▁concluded	-11.6219
▁revenue	-11.622
▁grant	-11.6221
▁dive	-11.6221
▁catching	-11.6222
▁shall	-11.6226
▁passes	-11.6226
▁Macy	-11.623
gen	-11.6232
▁Basic	-11.6233
▁Brett	-11.6233
▁Citizen	-11.6233
▁length	-11.6241
▁Bre	-11.6242
under	-11.6243
▁educated	-11.6244
▁peer	-11.6246
▁Boko	-11.625
▁Kent	-11.6251
▁suspects	-11.6251
▁Getaways	-11.6264
▁rings	-11.6269
bernat	-11.6269
olo	-11.6271
▁Mostly	-11.6272
▁Portraits	-11.6278
▁5,000	-11.628
▁Emotions	-11.6286
two	-11.6288
Bachelor	-11.629
Shirt	-11.629
Down	-11.629
gr	-11.6291
Over	-11.6291
▁appealing	-11.6292
orial	-11.6297
▁pretend	-11.63
▁Mat	-11.63
▁shed	-11.6302
Party	-11.6306
perfect	-11.6307
▁boom	-11.6318
▁regions	-11.6318
▁Mood	-11.6322
▁bias	-11.6326
▁shortages	-11.6329
▁infections	-11.6329
▁violate	-11.6335
▁Regular	-11.634
▁poet	-11.6342
▁parliament	-11.6343
60	-11.6343
▁Haram	-11.6343
▁Approval	-11.6343
▁Blunt	-11.6343
▁Memorable	-11.6343
▁Prescription	-11.6343
▁Surveillance	-11.6343
▁facilities	-11.6343
▁hashtag	-11.6343
▁Samsung	-11.6343
▁maternity	-11.6343
▁stability	-11.6343
▁trash	-11.6343
▁1998	-11.6343
▁Chile	-11.6343
▁Skirt	-11.6343
▁Tiffany	-11.6344
▁equivalent	-11.6344
▁episodes	-11.6344
▁Maui	-11.6344
▁Investors	-11.6344
▁Chloe	-11.6345
▁Ailes	-11.6345
▁Jenna	-11.6345
▁Further	-11.6345
gy	-11.6346
▁principle	-11.6346
▁Kathy	-11.6346
▁Farewell	-11.6347
▁ultra	-11.6348
▁Forbes	-11.6348
▁Soviet	-11.6348
God	-11.6348
▁Hiding	-11.635
▁Thankfully	-11.6351
▁Palestine	-11.6352
▁perceived	-11.6353
▁Decisions	-11.6354
▁Audience	-11.6355
▁ritual	-11.6355
▁Wildfire	-11.6355
▁Unite	-11.6356
▁inclusion	-11.6356
▁Scientist	-11.6356
▁Knot	-11.6357
istic	-11.6358
bad	-11.6359
▁Commissioner	-11.636
May	-11.6361
▁agrees	-11.6361
▁Evan	-11.6362
▁Decided	-11.6362
▁lung	-11.6365
▁Markets	-11.6365
▁Increased	-11.6367
▁settled	-11.6368
▁Mill	-11.6368
▁pocket	-11.6369
▁Nor	-11.6369
▁91	-11.6371
▁lifted	-11.6371
▁acknowledged	-11.6372
▁freed	-11.6373
▁Finish	-11.6374
▁Latina	-11.6375
▁relaxed	-11.6376
▁shoulders	-11.6378
lessness	-11.6378
▁authors	-11.6383
▁Maps	-11.6384
▁Selma	-11.6384
▁escaped	-11.6393
ice	-11.6398
▁Editors	-11.6398
▁Owe	-11.64
▁Pulled	-11.6401
▁Bomber	-11.6402
▁Standards	-11.641
▁nap	-11.6415
50	-11.6418
▁Teache	-11.6418
▁Chances	-11.6419
▁dread	-11.6421
After	-11.6423
Something	-11.6423
fer	-11.6426
▁DO	-11.6427
▁Neighbors	-11.6428
looking	-11.6429
▁Nurses	-11.6431
proving	-11.6431
▁launching	-11.6432
▁Suck	-11.6444
▁missiles	-11.6445
▁stated	-11.6449
▁seed	-11.6454
▁Bash	-11.6461
▁strict	-11.6464
▁supports	-11.6469
▁programme	-11.647
▁auto	-11.6472
▁Confirm	-11.6475
▁Complex	-11.6475
▁bipartisan	-11.6476
▁Assistant	-11.6476
▁Blasio	-11.6476
▁Coalition	-11.6476
▁Crucial	-11.6476
▁Postpartum	-11.6476
▁Scaramucci	-11.6476
▁Shanghai	-11.6476
▁Southampton	-11.6476
▁Succeed	-11.6476
▁dementia	-11.6476
▁REALLY	-11.6476
▁dubbed	-11.6476
▁Stockholm	-11.6476
▁Canyon	-11.6476
▁infectious	-11.6476
▁Caroline	-11.6476
▁Ronnie	-11.6476
▁Task	-11.6477
▁Couch	-11.6477
▁Immediately	-11.6479
▁Blended	-11.6481
▁swim	-11.6481
▁downtown	-11.6482
▁Beverly	-11.6482
▁momentum	-11.6483
▁Replacement	-11.6483
▁copy	-11.6484
▁Cory	-11.6487
▁workouts	-11.6487
▁partisan	-11.6489
▁apologized	-11.6489
▁prospect	-11.6492
▁attraction	-11.6493
▁Stressed	-11.6493
▁appointment	-11.6494
▁listed	-11.6494
▁satisfying	-11.6495
▁Display	-11.6496
▁Product	-11.6497
▁occupied	-11.6497
▁canceled	-11.6498
▁hike	-11.6499
▁suing	-11.65
▁bans	-11.6504
▁Kicked	-11.6508
▁Eagles	-11.6511
▁Tan	-11.6516
▁Minds	-11.6521
▁bi	-11.6521
▁Divide	-11.6522
mit	-11.6543
held	-11.6544
ised	-11.6556
Friends	-11.6558
Never	-11.656
pin	-11.6561
▁Fa	-11.6561
▁Lock	-11.6564
▁delicate	-11.6565
▁Sha	-11.6566
room	-11.6571
▁appeals	-11.6573
▁Boo	-11.6574
▁Loser	-11.6574
▁Reactions	-11.6576
▁neighborhoods	-11.6576
▁Channels	-11.6577
best	-11.6579
▁Contain	-11.6579
Only	-11.658
▁Dates	-11.6588
lie	-11.6592
▁hats	-11.6593
▁heated	-11.6593
▁Vs	-11.6594
▁Schedule	-11.6598
▁3-1	-11.66
▁Region	-11.6601
ill	-11.6605
▁Buzz	-11.6606
nger	-11.6609
▁descend	-11.661
▁horizon	-11.661
▁Detention	-11.6611
▁Duterte	-11.6611
▁Pulse	-11.6611
▁junior	-11.6611
▁trillion	-11.6611
▁Judd	-11.6611
▁Laurie	-11.6611
▁ignoring	-11.6611
▁Clooney	-11.6611
▁ceasefire	-11.6611
▁tackling	-11.6611
▁Nadal	-11.6611
▁Touchdown	-11.6611
▁elementary	-11.6611
stone	-11.6612
▁propaganda	-11.6613
▁citizenship	-11.6613
▁associate	-11.6617
▁dominate	-11.6617
▁indicate	-11.6617
▁lands	-11.6618
▁launches	-11.6619
▁supportive	-11.662
▁Wishes	-11.6621
▁Plants	-11.6623
▁Beef	-11.6624
hole	-11.6625
▁Ah	-11.6626
▁Steel	-11.6627
▁Obsessed	-11.6628
▁Dana	-11.6628
▁Mormon	-11.6629
▁midterm	-11.6631
▁Stronger	-11.6633
▁coping	-11.6634
▁Carol	-11.6638
▁prepares	-11.664
▁inclusive	-11.6642
▁provider	-11.6648
▁superb	-11.6649
▁rolled	-11.665
▁critically	-11.6652
▁Fell	-11.6659
▁Newborn	-11.6661
parent	-11.6664
take	-11.6665
Talk	-11.6666
▁lake	-11.6675
▁Blonde	-11.668
ass	-11.6682
ug	-11.6686
wife	-11.6688
Full	-11.669
▁kicking	-11.669
▁Swim	-11.6692
screen	-11.6693
Fake	-11.6694
▁pin	-11.6695
▁awe	-11.6696
▁discovering	-11.6699
▁23-	-11.6701
ced	-11.6718
▁villages	-11.6719
▁Lobby	-11.672
▁Testify	-11.6721
▁Butt	-11.6721
af	-11.6726
▁2006	-11.6727
▁possess	-11.673
▁attractions	-11.6731
nk	-11.6732
▁Pig	-11.6735
▁Tight	-11.6736
▁biological	-11.674
▁Spectacular	-11.6742
▁Certain	-11.6743
▁Clash	-11.6745
▁legislati	-11.6746
▁steel	-11.6747
▁Abraham	-11.6747
▁Census	-11.6747
▁Electoral	-11.6747
▁Hanukkah	-11.6747
▁Kuenssberg	-11.6747
▁Lagerfeld	-11.6747
▁Shakespeare	-11.6747
▁Testimony	-11.6747
▁behaviour	-11.6747
▁curiosity	-11.6747
▁electoral	-11.6747
▁obese	-11.6747
▁surviving	-11.6747
▁Monroe	-11.6747
▁Phelps	-11.6747
▁Cecil	-11.6747
▁fatigue	-11.6747
▁Allergies	-11.6747
▁indictment	-11.6747
▁Hilton	-11.6747
▁Injuries	-11.6747
▁Wallace	-11.6747
▁Merrick	-11.6747
▁midnight	-11.6747
▁ownership	-11.6748
▁playground	-11.6748
▁Housewives	-11.6748
▁Flow	-11.6749
▁Elderly	-11.6749
▁Junk	-11.6749
-3	-11.675
▁isolated	-11.6751
▁spare	-11.6752
ify	-11.6753
▁Swing	-11.6753
▁Rolls	-11.6754
▁Addresses	-11.6754
▁Baking	-11.6755
▁thrilled	-11.6756
▁gu	-11.6759
▁Concerned	-11.6759
▁74	-11.6761
▁overlooked	-11.6762
▁Albert	-11.6762
▁disappeared	-11.6764
▁baked	-11.6764
how	-11.6768
▁pledged	-11.6769
ven	-11.6769
▁comparison	-11.6769
▁division	-11.6769
▁scenario	-11.677
▁staple	-11.677
▁Argument	-11.677
▁milestone	-11.677
▁Tank	-11.677
▁opponent	-11.677
▁distraction	-11.677
▁Empowering	-11.677
11	-11.6771
▁unite	-11.6771
▁'70	-11.6772
ax	-11.6773
▁regulation	-11.6774
bed	-11.6774
▁recovered	-11.6777
▁lifelong	-11.6779
▁Bubble	-11.6779
▁Bean	-11.6781
cent	-11.6783
pan	-11.6783
og	-11.6784
aging	-11.6784
▁fighters	-11.6788
▁networks	-11.6796
body	-11.6798
▁Performs	-11.68
lon	-11.6802
▁inter	-11.6803
▁embraced	-11.6804
▁exceptional	-11.6807
▁cheer	-11.6807
▁Targeted	-11.6808
▁Bros	-11.6811
▁glance	-11.6814
▁signals	-11.6817
tier	-11.6818
▁spirits	-11.6823
▁stark	-11.6825
Winning	-11.6832
Making	-11.6832
▁Gig	-11.6834
▁Tar	-11.6837
▁Thin	-11.6838
▁bears	-11.6838
▁52	-11.6846
▁Phones	-11.6847
▁Sub	-11.6847
▁diets	-11.6851
▁approached	-11.6852
table	-11.6856
▁magazines	-11.6857
▁Cher	-11.6857
▁ministers	-11.6859
▁swear	-11.6859
▁Dangers	-11.686
▁fee	-11.6861
key	-11.6861
▁Nose	-11.6866
▁arrives	-11.6868
▁Lucas	-11.6872
▁enhance	-11.6873
▁hook	-11.6873
are	-11.6877
▁Peru	-11.6877
▁Anchor	-11.6877
▁statistics	-11.6877
ries	-11.6878
▁anonymous	-11.6878
ari	-11.6878
than	-11.6879
ED	-11.688
▁stole	-11.6882
▁Entrepreneur	-11.6883
▁potato	-11.6883
▁Realize	-11.6884
▁Achieve	-11.6884
iv	-11.6884
▁Apnea	-11.6885
▁Arpaio	-11.6885
▁Arthur	-11.6885
▁Asylum	-11.6885
▁Gloria	-11.6885
▁Hemsworth	-11.6885
▁Lewandowski	-11.6885
▁Mbappe	-11.6885
▁chaotic	-11.6885
▁description	-11.6885
▁significance	-11.6885
▁surveillance	-11.6885
▁Montreal	-11.6885
▁Hilary	-11.6885
▁Dublin	-11.6885
▁Norrie	-11.6885
▁Kamala	-11.6885
▁lazy	-11.6885
▁Activism	-11.6885
▁Citizenship	-11.6885
▁Indeed	-11.6885
▁simultaneously	-11.6886
▁Biles	-11.6886
▁knockout	-11.6886
▁Vincent	-11.6886
▁Patton	-11.6886
▁spite	-11.6887
▁potatoes	-11.6888
▁invisible	-11.6888
▁optimistic	-11.6888
▁Bunch	-11.6889
▁Harlem	-11.6889
▁Infrastructure	-11.6889
▁BET	-11.6889
▁Mandate	-11.6889
▁Erin	-11.6889
▁Hughes	-11.6889
▁Sacred	-11.689
▁Grandmother	-11.689
▁looming	-11.689
▁Tease	-11.689
▁Bland	-11.6891
▁photography	-11.6891
▁Homelessness	-11.6894
▁Tweeters	-11.6894
▁ho	-11.6895
▁Conditions	-11.6896
▁crop	-11.6899
▁demonstrate	-11.69
▁Dig	-11.69
▁updated	-11.6902
▁elect	-11.6903
▁Chapter	-11.6903
▁posed	-11.6903
▁Mick	-11.6905
▁boards	-11.6905
▁wages	-11.6906
▁Leo	-11.6908
▁Period	-11.691
▁2013.	-11.6911
▁Rebels	-11.6911
▁ensemble	-11.6912
▁Gi	-11.6912
▁shark	-11.6912
▁Neighborhood	-11.6912
▁nerve	-11.6912
▁Rethink	-11.6915
ken	-11.6915
▁Factor	-11.6916
▁Suffering	-11.6916
▁fairy	-11.6917
▁Differently	-11.6918
▁layers	-11.6926
▁Startup	-11.6926
▁improvement	-11.6926
▁anytime	-11.6936
▁Pamel	-11.6937
▁bottles	-11.694
▁Flee	-11.6941
▁Able	-11.6941
▁Calif	-11.6943
▁Button	-11.6944
▁mandate	-11.6944
▁Seconds	-11.6945
▁Dollars	-11.6945
▁Clips	-11.6949
▁Mint	-11.6958
▁cops	-11.6958
▁Kardashians	-11.6959
▁Hurting	-11.6963
▁ALL	-11.6965
High	-11.6965
▁AP	-11.6969
front	-11.6969
woman	-11.697
Founder	-11.6972
▁Conversations	-11.6978
▁sh	-11.6982
only	-11.6986
Ma	-11.6989
▁adapt	-11.699
makers	-11.6995
has	-11.7003
▁Knee	-11.7004
▁LIV	-11.7005
▁rip	-11.7007
▁Sharp	-11.7007
▁Airstrikes	-11.7008
▁pledges	-11.7011
▁fed	-11.7011
Q	-11.7014
▁Polling	-11.7015
▁Clever	-11.7018
▁occurs	-11.7021
ku	-11.7022
human	-11.7022
▁Melt	-11.7024
▁Wings	-11.7025
▁uncertain	-11.7025
▁Anatomy	-11.7025
▁Embassy	-11.7025
▁Glastonbury	-11.7025
▁Lloyd	-11.7025
▁Mercury	-11.7025
▁Monologue	-11.7025
▁Peyton	-11.7025
▁Timoth	-11.7025
▁devastation	-11.7025
▁fiscal	-11.7025
▁hockey	-11.7025
▁miserable	-11.7025
▁recognizing	-11.7025
▁resilience	-11.7025
▁Patricia	-11.7025
▁Psychological	-11.7025
▁Kherson	-11.7025
▁Trafford	-11.7025
▁fireworks	-11.7025
▁Breathtaking	-11.7025
▁Idaho	-11.7025
▁activism	-11.7026
▁Stanley	-11.7026
▁breakthrough	-11.7026
▁texture	-11.7026
▁Mashup	-11.7026
▁Ra	-11.7026
▁canvas	-11.7026
▁Nunes	-11.7026
▁Rooney	-11.7027
▁Chat	-11.7027
▁gentle	-11.7027
▁underwear	-11.7027
▁leap	-11.7028
▁Hospitalized	-11.7028
▁Leigh	-11.7028
nvestigating	-11.7029
▁trading	-11.7029
▁Kurdish	-11.7029
▁2002	-11.7029
▁stunned	-11.7029
▁discriminate	-11.7029
▁knife	-11.703
▁Dawn	-11.703
▁tolerance	-11.7031
▁unfortunately	-11.7032
▁evacuated	-11.7033
uc	-11.7033
▁Cage	-11.7034
▁sacked	-11.7035
▁cruel	-11.7035
▁practically	-11.7036
▁Retired	-11.7037
▁Skinny	-11.704
▁scoring	-11.7041
▁disappointing	-11.7044
▁investigations	-11.7045
▁qualified	-11.7045
Red	-11.7046
▁eaten	-11.7047
▁releas	-11.7047
▁4,	-11.7049
▁Nazis	-11.705
▁Device	-11.7056
▁Retreat	-11.7058
▁Limits	-11.7058
▁Jets	-11.7058
▁Laughing	-11.706
▁portrait	-11.7061
▁employer	-11.7062
▁united	-11.7063
▁Pardon	-11.7064
▁Fla	-11.7068
▁borders	-11.7068
▁Repeat	-11.7069
▁58	-11.707
▁Miracle	-11.7071
▁Barr	-11.7075
▁CO	-11.7076
▁Peak	-11.7077
▁Doll	-11.7082
real	-11.7083
▁Dumb	-11.7083
▁Bridges	-11.7086
▁coin	-11.7088
▁Disorders	-11.7089
▁wickets	-11.709
▁refuses	-11.7094
19	-11.7099
▁Boot	-11.7106
▁websites	-11.7113
▁recalls	-11.7114
husband	-11.7114
country	-11.7115
▁realm	-11.7121
▁Dressing	-11.7122
ky	-11.7125
▁Polar	-11.7128
pop	-11.7129
▁Belt	-11.7133
ER	-11.7133
▁wing	-11.7137
▁Parts	-11.7138
▁runner	-11.7138
▁lo	-11.7138
oc	-11.714
▁Nest	-11.7144
▁Ty	-11.7147
▁punish	-11.7149
▁disrupt	-11.715
▁2017.	-11.7151
▁fare	-11.7154
▁avoided	-11.7154
▁waited	-11.7155
▁Olive	-11.7157
▁dirt	-11.7161
▁UPDATE	-11.7163
▁conservation	-11.7164
▁88	-11.7164
▁supporter	-11.7166
▁insist	-11.7166
▁Ecuador	-11.7167
▁Anonymous	-11.7168
▁Buckingham	-11.7168
▁Gingrich	-11.7168
▁Possibly	-11.7168
▁intimacy	-11.7168
▁tasty	-11.7168
▁impeachment	-11.7168
▁Hungary	-11.7168
▁Tampa	-11.7168
▁altogether	-11.7168
▁Congratulations	-11.7168
▁farewell	-11.7168
▁nostalgia	-11.7168
▁boycott	-11.7168
▁Supermodel	-11.7168
▁Gosling	-11.7168
▁Feast	-11.7168
▁adulthood	-11.7168
▁Gabrielle	-11.7168
▁laughter	-11.7169
▁Russo	-11.7169
▁shootout	-11.7169
▁Underwater	-11.7169
▁theatre	-11.717
▁25-	-11.717
▁Memphis	-11.717
▁exercising	-11.717
▁believing	-11.717
▁Richie	-11.7171
▁puppy	-11.7171
▁accidentally	-11.7171
▁Pole	-11.7172
▁Yellow	-11.7172
▁underway	-11.7172
▁steady	-11.7173
▁Islamophobia	-11.7174
▁radar	-11.7174
▁Jenny	-11.7174
▁Factory	-11.7174
▁Annoying	-11.7174
▁Sexuality	-11.7175
▁Slavery	-11.7176
▁Serving	-11.7177
▁evolved	-11.7179
▁demonstrated	-11.718
▁teaches	-11.7182
▁mounting	-11.7182
▁realistic	-11.7183
▁Aside	-11.7186
▁floating	-11.7188
uch	-11.7188
▁28-	-11.7189
▁dealt	-11.7189
▁Han	-11.7189
▁Dispute	-11.719
▁Recall	-11.7192
▁Billie	-11.7193
29	-11.7194
ada	-11.7197
▁Luna	-11.72
▁stadium	-11.7202
▁Genetic	-11.7202
▁Flooding	-11.7203
▁Communication	-11.7203
▁Mum	-11.7203
▁wallet	-11.7203
▁finest	-11.7205
▁Shorts	-11.7208
▁external	-11.7209
▁rewarding	-11.7211
▁Visitors	-11.7213
ova	-11.7213
▁reconnect	-11.7213
▁subjects	-11.7215
▁arrests	-11.7216
▁Mate	-11.7218
▁Projects	-11.722
who	-11.722
▁warmer	-11.7222
▁Vow	-11.7222
▁Nominations	-11.7222
▁sizes	-11.7224
▁trainer	-11.723
▁Profit	-11.7231
▁NSFW	-11.7234
▁Cate	-11.7243
▁delivering	-11.7245
▁wash	-11.7257
Chief	-11.7258
▁fishing	-11.7259
make	-11.726
▁thoughtful	-11.7261
Era	-11.7264
▁Sums	-11.7267
▁ethics	-11.7268
dom	-11.7268
Art	-11.7269
av	-11.727
row	-11.7275
▁Cinc	-11.7277
▁shortly	-11.7279
▁employers	-11.7282
NA	-11.7283
Ed	-11.7284
Fire	-11.7286
IR	-11.7288
▁employ	-11.7288
▁Searching	-11.7289
▁Unions	-11.7289
▁ponder	-11.7289
hen	-11.729
girl	-11.7294
▁restrict	-11.7295
▁140	-11.7296
▁Mag	-11.7296
▁squeeze	-11.7301
▁Highly	-11.7303
▁sketch	-11.7303
▁quiz	-11.7303
▁preserve	-11.7303
nny	-11.7304
▁mild	-11.7305
CH	-11.7306
mail	-11.7307
▁Alarm	-11.7309
▁superhero	-11.731
▁Commit	-11.731
▁powder	-11.7311
▁Thirty	-11.7312
Malley	-11.7312
judicial	-11.7312
▁LOL	-11.7312
▁Nicholas	-11.7312
▁Preparing	-11.7312
▁Priebus	-11.7312
▁liberty	-11.7312
▁shaping	-11.7312
▁transparency	-11.7312
▁exhausted	-11.7312
▁Belfast	-11.7312
▁Psychology	-11.7312
▁Collaboration	-11.7312
▁unrest	-11.7312
▁Lochte	-11.7312
▁Judy	-11.7312
▁default	-11.7312
▁migration	-11.7312
▁Weiner	-11.7312
▁Comics	-11.7312
▁revival	-11.7312
▁Kickstarter	-11.7312
▁Flies	-11.7312
▁Identify	-11.7313
▁po	-11.7313
▁Odom	-11.7314
▁Seahawks	-11.7314
▁modest	-11.7314
▁hated	-11.7314
▁Fracking	-11.7315
▁Antarctica	-11.7315
▁Overdose	-11.7315
▁LOVE	-11.7315
▁Danish	-11.7316
▁Biel	-11.7316
▁ripped	-11.7317
▁UC	-11.7318
▁Fortune	-11.7319
▁iron	-11.732
▁Robertson	-11.732
▁Poet	-11.7323
▁Reed	-11.7324
▁Detained	-11.7325
▁Humor	-11.7328
▁Milo	-11.733
ctively	-11.7333
▁fitting	-11.7334
▁failures	-11.7334
▁grilled	-11.7338
▁oppose	-11.7338
▁contributed	-11.7339
▁businessman	-11.7339
▁focuses	-11.734
▁acted	-11.7343
▁Royals	-11.7343
▁Trumpcare	-11.7343
▁Mixed	-11.7343
▁detailed	-11.7343
▁joked	-11.7348
▁operate	-11.7348
▁Article	-11.735
▁supermodel	-11.7351
▁Stake	-11.7354
ied	-11.7358
▁ships	-11.7358
Tis	-11.7361
▁shooter	-11.7363
▁Tens	-11.7363
▁Vegetables	-11.7373
▁goodness	-11.7373
Look	-11.7378
▁Vaccines	-11.7379
▁Pledges	-11.738
▁Jailed	-11.7381
▁populations	-11.7383
▁managers	-11.739
EN	-11.7393
▁Treating	-11.7393
▁Investigators	-11.7394
▁par	-11.7402
80	-11.7402
stop	-11.7405
Divorce	-11.7405
Some	-11.7405
Hour	-11.7406
Step	-11.7407
▁myths	-11.7408
▁trials	-11.7412
▁joyful	-11.7414
▁fulfill	-11.7415
▁commitments	-11.7417
▁Quits	-11.7417
▁Savings	-11.7424
▁lobby	-11.743
▁alter	-11.7435
▁rewards	-11.7436
▁l	-11.7437
▁Senegal	-11.7439
▁Vine	-11.7439
▁Baptist	-11.744
▁structures	-11.7443
▁Viola	-11.7444
▁Boom	-11.7445
▁casting	-11.745
▁Openly	-11.745
▁Bulls	-11.7452
▁Restore	-11.7454
▁Sketch	-11.7456
kind	-11.7456
▁Stole	-11.7456
▁Beau	-11.7456
▁opera	-11.7457
▁Shine	-11.7458
▁Bipartisan	-11.7458
▁Grieving	-11.7458
▁Meditate	-11.7458
▁Norwegian	-11.7458
▁Pyongyang	-11.7458
▁Ultra	-11.7458
▁WHERE	-11.7458
▁announcing	-11.7458
▁anticipation	-11.7458
▁beneficial	-11.7458
▁grieving	-11.7458
▁inevitably	-11.7458
▁opioid	-11.7458
▁rubble	-11.7458
▁Sachs	-11.7458
▁Brentford	-11.7458
▁Nursing	-11.7458
▁Panama	-11.7458
▁laptop	-11.7458
▁Recession	-11.7458
▁Anywhere	-11.7458
▁theories	-11.7459
▁poetry	-11.7459
▁Burnley	-11.7459
▁transportation	-11.7459
▁Congo	-11.7459
▁WWII	-11.746
▁medium	-11.746
▁Infidelity	-11.746
▁Referendum	-11.746
▁Portman	-11.7461
▁preview	-11.7461
▁Partygate	-11.7461
▁arguably	-11.7461
▁STEM	-11.7462
▁acclaim	-11.7462
▁ears	-11.7463
▁Healthcare	-11.7463
▁Weirdest	-11.7463
▁Jedi	-11.7463
▁Knowles	-11.7463
▁orientation	-11.7464
▁KKK	-11.7464
▁Courtney	-11.7464
▁hostile	-11.7464
▁Lift	-11.7464
▁Hawaiian	-11.7465
▁wherever	-11.7465
▁freezing	-11.7465
▁Logan	-11.7465
▁Vo	-11.7466
▁cult	-11.7467
▁Punk	-11.7467
▁Horrible	-11.7468
▁savvy	-11.747
▁campaigns	-11.7471
▁producing	-11.7471
▁boxes	-11.7471
▁Kidman	-11.7471
Em	-11.7472
▁whip	-11.7472
▁criticised	-11.7473
▁Neck	-11.7474
▁Annie	-11.7475
▁Manag	-11.7476
▁Grows	-11.7478
▁Bale	-11.7482
Mr	-11.7483
▁binge	-11.7486
▁taxpayers	-11.7486
-12	-11.7487
▁studying	-11.7488
▁Retire	-11.7488
▁Omar	-11.7489
▁risen	-11.7489
▁Gras	-11.7489
▁Coat	-11.7491
▁Reacts	-11.7497
▁traditionally	-11.7497
▁Ranch	-11.7497
▁87	-11.7498
▁initiatives	-11.7499
van	-11.75
▁explanation	-11.7501
▁Position	-11.7501
▁evacuation	-11.7502
▁Location	-11.7502
▁smartphone	-11.7502
▁charts	-11.7502
▁Presents	-11.7502
▁athletic	-11.7504
▁Hire	-11.7507
▁controlled	-11.7507
▁Print	-11.7507
▁Dude	-11.7508
▁resulting	-11.751
turn	-11.7513
▁influenced	-11.7518
▁dam	-11.7518
▁thrash	-11.7519
▁Adopt	-11.752
▁races	-11.7521
▁Ju	-11.7523
▁cooler	-11.7524
▁hunting	-11.7524
▁SO	-11.7529
▁Poster	-11.753
▁Lib	-11.7533
▁Snake	-11.7533
▁Rae	-11.7533
hy	-11.7537
▁Bust	-11.7543
ev	-11.7543
▁Stunt	-11.7546
▁wounds	-11.7547
▁gene	-11.7551
Palestinian	-11.7553
Pretty	-11.7553
Nothing	-11.7553
ular	-11.7554
gal	-11.7556
Mean	-11.7558
▁Ba	-11.756
▁exercises	-11.7561
▁Connect	-11.7563
▁abandon	-11.7571
▁Mayer	-11.7573
▁Sum	-11.7575
▁responses	-11.7578
▁glow	-11.758
▁Fighters	-11.7584
▁83	-11.7585
▁scratch	-11.7587
▁Pray	-11.759
▁observe	-11.7592
▁tasks	-11.7594
▁Elephants	-11.7594
▁evolve	-11.7595
▁Scale	-11.7595
ura	-11.7601
▁96	-11.7601
shirt	-11.7601
▁musicians	-11.7602
▁killings	-11.7604
▁insights	-11.7606
▁Headed	-11.7606
▁Kirk	-11.7607
▁Deborah	-11.7607
▁Madeleine	-11.7607
▁arguing	-11.7607
▁bronze	-11.7607
▁dilemma	-11.7607
▁province	-11.7607
▁Legislation	-11.7607
▁Ferrari	-11.7607
▁enduring	-11.7607
▁nude	-11.7607
▁Rouge	-11.7607
▁victories	-11.7607
▁Prada	-11.7607
▁unarmed	-11.7607
▁automatically	-11.7607
▁Draper	-11.7607
▁chasing	-11.7607
▁Bailey	-11.7607
▁Zimbabwe	-11.7607
▁Decorating	-11.7607
▁reunion	-11.7607
▁Greta	-11.7607
▁Belgian	-11.7609
▁Alison	-11.7609
▁overhaul	-11.7609
▁Identified	-11.761
▁playlist	-11.761
▁attached	-11.761
▁abundance	-11.7611
▁tempting	-11.7611
▁flawed	-11.7611
▁Strictly	-11.7611
▁clinic	-11.7611
▁lonely	-11.7611
▁realities	-11.7611
▁Snowden	-11.7612
▁Havana	-11.7612
▁Courage	-11.7613
▁irony	-11.7613
▁Lonely	-11.7614
▁Katrina	-11.7614
▁inches	-11.7614
▁Palmer	-11.7614
▁Bern	-11.7616
▁homework	-11.7616
▁Delays	-11.7617
▁hailed	-11.7619
▁Leah	-11.762
▁Porter	-11.762
▁Revenge	-11.7622
▁collected	-11.7622
▁Lana	-11.7624
▁bombs	-11.7625
▁reduction	-11.7626
▁factory	-11.7626
▁parental	-11.7627
▁screaming	-11.7628
▁illegally	-11.7629
▁ACA	-11.763
▁flooded	-11.7633
▁lyrics	-11.7633
ifying	-11.7635
▁Dust	-11.7638
▁tongue	-11.7638
▁Hike	-11.7639
▁medications	-11.764
▁climbing	-11.7646
▁Refuse	-11.7647
▁Volunteer	-11.7649
▁y	-11.7654
▁Kay	-11.7654
▁endorsement	-11.7655
▁craving	-11.7655
▁fights	-11.7656
▁measured	-11.7657
▁Highlight	-11.7658
▁Smell	-11.7659
▁Teenager	-11.766
▁dynamic	-11.7662
▁78	-11.7664
▁bust	-11.7669
▁Legs	-11.7671
▁Opponents	-11.7674
▁Brook	-11.7674
▁Brace	-11.768
▁68	-11.7683
▁shifts	-11.7684
▁finishing	-11.7692
▁Severe	-11.7696
season	-11.7699
Ever	-11.7699
Donald	-11.7704
Dangerous	-11.7704
▁graduates	-11.7706
▁Ki	-11.7708
▁beans	-11.7714
▁dreaming	-11.7715
▁collect	-11.7715
▁Ren	-11.7716
▁Communications	-11.772
▁staring	-11.7728
▁etc	-11.7732
MA	-11.7734
▁Float	-11.7736
▁Finals	-11.7736
▁distinguish	-11.7737
▁uncover	-11.7742
▁Ran	-11.7743
▁parking	-11.7744
▁motivate	-11.7745
▁resource	-11.7746
tur	-11.7747
ika	-11.7748
▁Absurd	-11.775
▁Wal	-11.7752
▁forest	-11.7752
▁Gucci	-11.7755
▁monthly	-11.7755
▁chip	-11.7755
standing	-11.7756
▁flick	-11.7757
▁bail	-11.7757
▁caution	-11.7757
▁pleasant	-11.7757
▁Parkinson	-11.7757
▁Cathedral	-11.7757
▁Knife	-11.7757
▁Murdoch	-11.7757
▁Plenty	-11.7757
▁Snoop	-11.7757
▁Striking	-11.7757
▁Tobacco	-11.7757
▁Zinke	-11.7757
▁ambulance	-11.7757
▁economies	-11.7757
▁luxurious	-11.7757
▁resilient	-11.7757
▁tobacco	-11.7757
▁Aftermath	-11.7757
▁Essay	-11.7757
▁studied	-11.7757
▁exploration	-11.7757
▁Nyong	-11.7757
▁Jinping	-11.7757
▁Denied	-11.7757
▁Duncan	-11.7757
▁Gavin	-11.7757
▁Heartfelt	-11.7758
▁loyalty	-11.7758
▁Detective	-11.7758
▁Pretend	-11.7758
▁indication	-11.7758
▁$100,000	-11.7758
▁isolation	-11.7758
▁fond	-11.7758
▁Supermarket	-11.7758
▁NPR	-11.7759
▁Prostate	-11.7759
▁prejudice	-11.7759
▁SEC	-11.7759
▁banning	-11.7759
▁Authority	-11.776
27	-11.776
▁Indicted	-11.7761
▁Salman	-11.7761
▁decorating	-11.7761
▁shapes	-11.7761
▁Alexis	-11.7761
▁Sophia	-11.7761
▁outrageous	-11.7761
▁Coke	-11.7762
▁showcase	-11.7762
▁Savage	-11.7762
▁Thrive	-11.7763
elle	-11.7764
▁Jude	-11.7764
▁Scarlett	-11.7765
▁lengthy	-11.7765
▁Rough	-11.7765
▁enemies	-11.7765
▁destructive	-11.7766
▁offices	-11.7766
▁enjoyable	-11.7766
▁Fargo	-11.7768
▁consumed	-11.7769
▁Switch	-11.7769
▁Feelings	-11.777
▁Reverse	-11.7771
▁historically	-11.7773
▁Haunting	-11.7774
▁ought	-11.7774
▁21,	-11.7776
▁unacceptable	-11.7778
vis	-11.7779
su	-11.7781
▁Hatch	-11.7782
▁Binge	-11.7782
▁Transformation	-11.7783
▁collecting	-11.7785
▁tender	-11.7785
▁declare	-11.7798
▁reference	-11.7798
▁Pakistani	-11.7803
▁Fest	-11.7803
▁tail	-11.7804
▁hug	-11.7806
▁Bail	-11.781
▁jacket	-11.781
▁Steals	-11.7811
had	-11.7812
net	-11.7812
▁Burgers	-11.7812
ich	-11.7814
▁Decline	-11.7815
▁Alien	-11.782
▁Tone	-11.782
mas	-11.7821
-20	-11.7823
▁Chick	-11.7827
21	-11.7829
▁Develop	-11.7834
▁Halle	-11.7835
▁platforms	-11.784
▁rebels	-11.7841
▁Bombs	-11.7842
▁Rad	-11.7846
▁resorts	-11.7851
▁Freed	-11.7856
esteem	-11.7857
Smith	-11.7857
▁Tara	-11.7859
running	-11.7859
▁touching	-11.7861
leg	-11.7862
ye	-11.7864
▁Ordered	-11.7864
▁startup	-11.7864
▁PHOTO	-11.7867
▁Agents	-11.787
▁alternatives	-11.7871
▁Supporter	-11.7874
via	-11.7875
▁wars	-11.7876
▁Counsel	-11.788
▁bother	-11.7881
▁shifting	-11.7881
▁Invest	-11.7881
▁vaccines	-11.7887
▁Fighter	-11.789
▁Downing	-11.789
▁77	-11.7894
▁22-	-11.7895
▁materials	-11.79
▁pension	-11.7902
▁GB	-11.7902
▁terminal	-11.7903
▁technical	-11.7903
▁Dominic	-11.7904
page	-11.7909
▁feat	-11.791
▁Samuel	-11.791
▁Adorably	-11.791
▁FLOTUS	-11.791
▁Hebdo	-11.791
▁Mohammed	-11.791
▁Wembley	-11.791
▁categories	-11.791
▁alliance	-11.791
▁Isaac	-11.791
▁discomfort	-11.791
▁Cynthia	-11.7911
▁cried	-11.7911
▁Shepard	-11.7911
▁photograph	-11.7911
▁Springsteen	-11.7911
▁bigotry	-11.7911
▁Guidelines	-11.7911
▁Unarmed	-11.7911
▁derby	-11.7911
▁nightclub	-11.7911
▁Cotton	-11.7911
▁Slain	-11.7911
▁staffers	-11.7911
▁flew	-11.7911
▁1999	-11.7911
▁Bayern	-11.7912
▁Breitbart	-11.7912
▁purse	-11.7912
PM	-11.7913
▁lethal	-11.7913
▁flexibility	-11.7914
Girl	-11.7914
▁Confused	-11.7915
▁Drives	-11.7915
▁happily	-11.7915
des	-11.7916
▁sanctuary	-11.7916
▁oven	-11.7917
▁Glasses	-11.7917
▁magnificent	-11.7918
▁paintings	-11.7918
▁broader	-11.7918
▁coastal	-11.7918
▁Wealthy	-11.7919
▁Col	-11.7922
▁Ability	-11.7922
▁Nashville	-11.7923
▁boxing	-11.7924
▁rethink	-11.7924
PA	-11.7924
▁violated	-11.7925
▁Tate	-11.7927
▁exclusively	-11.7927
▁insisted	-11.7928
▁Prisoners	-11.7928
▁gotta	-11.7928
▁flock	-11.7929
▁Churches	-11.793
▁fried	-11.7932
▁Serial	-11.7933
▁lining	-11.7934
▁Ear	-11.7934
▁selected	-11.7934
▁cultures	-11.7937
▁purchased	-11.7937
▁titles	-11.7937
▁Cara	-11.7937
bling	-11.7939
fu	-11.794
▁50-	-11.794
▁3,000	-11.7942
▁AR	-11.7942
uted	-11.7943
,500	-11.7944
▁Cinema	-11.7944
▁Vera	-11.7946
▁empowering	-11.7948
goers	-11.795
▁elephants	-11.7953
▁Chilling	-11.7954
ening	-11.7955
▁delightful	-11.7955
▁Treated	-11.7956
▁Haters	-11.7962
▁Mindy	-11.7963
▁zoo	-11.7963
gin	-11.7967
▁Cheer	-11.7967
▁satellite	-11.7967
▁cousin	-11.7968
hat	-11.7968
▁poem	-11.7968
▁whale	-11.7968
▁shade	-11.7968
▁Midterm	-11.7969
▁lion	-11.7969
▁kidney	-11.7969
▁Pearl	-11.797
Fat	-11.7973
▁Excuse	-11.7973
▁Firefighters	-11.7975
▁1:	-11.7976
▁Accuser	-11.7977
▁debuted	-11.7982
media	-11.7986
iff	-11.7987
▁financially	-11.7989
gui	-11.7992
▁balanced	-11.7995
colored	-11.7998
▁Insists	-11.8005
▁delegates	-11.8006
▁ramp	-11.8009
▁Southeast	-11.8011
▁wines	-11.8012
wear	-11.8012
government	-11.8013
▁Zac	-11.8013
▁buyer	-11.8014
fa	-11.8014
▁Wu	-11.8014
▁Lone	-11.8019
▁genes	-11.802
▁hearings	-11.8021
date	-11.8022
▁implement	-11.8022
▁hyper	-11.8022
non	-11.8024
▁footballer	-11.8027
▁memorial	-11.8027
▁curve	-11.8031
▁Vacations	-11.8039
▁Ver	-11.804
▁Swear	-11.804
▁wood	-11.804
fest	-11.8042
▁plead	-11.8044
du	-11.8048
▁Photograph	-11.8049
▁micro	-11.8053
▁82	-11.8054
ient	-11.8059
▁Snap	-11.8059
▁sue	-11.8062
▁estimates	-11.8063
▁bonus	-11.8063
▁Ronald	-11.8064
▁camps	-11.8065
▁chains	-11.8065
▁Pulitzer	-11.8066
▁Activities	-11.8066
▁Couture	-11.8066
▁Maggie	-11.8066
▁Rupert	-11.8066
▁TMZ	-11.8066
▁consensus	-11.8066
▁crises	-11.8066
▁empire	-11.8066
▁sunshine	-11.8066
▁TomDispatch	-11.8066
▁peanut	-11.8066
▁entrance	-11.8066
▁compensation	-11.8066
▁Davos	-11.8066
▁WhatsApp	-11.8066
▁Reince	-11.8066
▁Jefferson	-11.8066
▁Gregory	-11.8066
▁Sniper	-11.8067
▁Panda	-11.8067
▁nest	-11.8067
▁trafficking	-11.8067
▁Luton	-11.8067
▁Caus	-11.8067
▁satisfaction	-11.8067
▁Duff	-11.8068
▁Backyard	-11.8068
▁Elton	-11.8069
▁Bisexual	-11.8069
▁nasty	-11.807
▁Incredibly	-11.807
▁columnist	-11.807
▁Bennett	-11.8071
▁Pharma	-11.8071
▁Underground	-11.8071
▁seeds	-11.8072
▁gray	-11.8072
▁deemed	-11.8072
▁charging	-11.8073
▁Labels	-11.8073
stand	-11.8074
▁Complicated	-11.8074
Nazi	-11.8075
▁drones	-11.8077
▁Lea	-11.8078
▁Letby	-11.8078
-15	-11.808
▁Stefani	-11.8081
▁Affairs	-11.8082
▁Bite	-11.8083
▁spill	-11.8086
▁Rivera	-11.8088
ula	-11.8088
▁registered	-11.8089
▁Strangers	-11.809
▁du	-11.8093
▁weighed	-11.8094
▁roller	-11.8098
▁promoted	-11.8105
▁bump	-11.8108
▁Reuters	-11.8112
▁investments	-11.8115
▁wound	-11.8115
ria	-11.8118
▁Captured	-11.812
▁upper	-11.812
▁Mal	-11.8122
▁Doc	-11.8123
▁incoming	-11.8123
▁pleased	-11.8125
▁Catche	-11.8128
▁trap	-11.8128
▁Neighbor	-11.8129
▁expense	-11.8129
▁Filmmaker	-11.813
▁Buys	-11.8133
▁toughest	-11.8134
▁Sides	-11.8134
▁Evangelical	-11.8134
▁bull	-11.8135
▁blessing	-11.8136
▁ghost	-11.8139
▁packing	-11.8143
▁Modeling	-11.8143
▁Baghdad	-11.8144
try	-11.8147
▁Slave	-11.8147
▁Plate	-11.8148
▁firefighters	-11.8155
,000	-11.8155
▁blend	-11.8155
▁Surf	-11.8158
▁fence	-11.8159
▁Pee	-11.8159
▁2014:	-11.8163
▁Reporting	-11.8165
▁Dina	-11.8167
Pacific	-11.817
WATCH	-11.8171
▁Hunting	-11.8171
▁Che	-11.8171
▁Recover	-11.8175
needed	-11.8179
▁Honored	-11.8179
▁Empower	-11.818
loving	-11.8181
▁Inmate	-11.8182
▁accomplishments	-11.8184
▁toddlers	-11.819
▁Rogers	-11.8192
▁Selfies	-11.8193
▁100-	-11.8194
▁notable	-11.8195
▁Gather	-11.8197
▁22,	-11.8198
▁Trees	-11.8199
▁Resist	-11.8201
▁2012.	-11.8205
▁fool	-11.8207
▁Punish	-11.8211
▁decrease	-11.8212
▁exploit	-11.8212
▁Leon	-11.8215
▁Wonders	-11.8218
hn	-11.8218
▁mutual	-11.8219
▁Notice	-11.822
▁Cheat	-11.822
ola	-11.8221
▁branch	-11.8221
▁Snook	-11.8222
▁Fiction	-11.8222
▁Romania	-11.8222
!!!	-11.8223
Donnell	-11.8224
▁Benedict	-11.8224
▁Crooks	-11.8224
▁Knowledge	-11.8224
▁MOTD	-11.8224
▁Ourselves	-11.8224
▁Rallies	-11.8224
▁Sutton	-11.8224
▁Tackling	-11.8224
▁apnea	-11.8224
▁complications	-11.8224
▁scoop	-11.8224
▁turmoil	-11.8224
▁Braverman	-11.8224
▁Vergara	-11.8224
▁captive	-11.8224
▁pursuing	-11.8224
▁shield	-11.8224
▁strive	-11.8224
▁Ceiling	-11.8224
▁deprivation	-11.8224
▁bench	-11.8224
▁Collective	-11.8224
▁renewable	-11.8224
▁Surface	-11.8225
▁Production	-11.8225
▁continually	-11.8225
▁Dominican	-11.8225
▁Coca	-11.8226
▁quirky	-11.8226
▁Versace	-11.8226
▁sang	-11.8227
▁TIME	-11.8227
▁criticise	-11.8227
▁Abe	-11.8227
▁PBS	-11.8227
▁Hitting	-11.8228
▁Bedtime	-11.8228
▁Blair	-11.8228
▁invented	-11.8229
▁misleading	-11.823
▁renowned	-11.823
▁Furious	-11.8231
▁presentation	-11.8231
▁Disturbing	-11.8233
▁Purple	-11.8233
TH	-11.8234
▁Haunted	-11.8234
unconstitutional	-11.8235
▁Olympians	-11.8235
▁friendships	-11.8235
▁coaches	-11.8239
bu	-11.8239
▁Boring	-11.8242
▁Regrets	-11.8243
▁roundup	-11.8245
▁Devin	-11.8246
▁quits	-11.8248
▁warmth	-11.8249
ments	-11.825
▁hop	-11.825
▁talents	-11.8258
▁lighting	-11.8259
▁physicians	-11.8259
▁Ok	-11.826
▁Beg	-11.826
▁wildly	-11.8261
▁expanded	-11.8262
iq	-11.8263
▁crafts	-11.8264
▁Canceled	-11.8266
aka	-11.8269
▁Corp	-11.827
▁Phillip	-11.8272
▁donor	-11.8279
power	-11.8281
▁Accusations	-11.8285
▁suffers	-11.8286
▁lenders	-11.8287
▁Designs	-11.8288
▁Bishop	-11.8291
▁Philippine	-11.8292
▁Briton	-11.8293
▁lock	-11.8294
▁genre	-11.8294
▁bubble	-11.8296
▁Lung	-11.8301
py	-11.8306
lock	-11.8307
▁Experiences	-11.8311
23	-11.8311
▁Writers	-11.8312
▁alarming	-11.8313
▁Devil	-11.8317
▁tributes	-11.8322
▁mob	-11.8324
▁Faced	-11.8324
▁Shi	-11.8325
show	-11.8327
word	-11.8327
songwriter	-11.833
second	-11.8331
there	-11.8331
control	-11.8331
Please	-11.8331
Family	-11.8331
Because	-11.8331
State	-11.8331
Long	-11.8332
▁trusted	-11.8333
▁computers	-11.8335
▁Finn	-11.8337
▁sustain	-11.834
▁rant	-11.8347
▁Brooke	-11.8347
▁tense	-11.8348
▁bend	-11.8351
14	-11.8352
26	-11.8356
shed	-11.8356
▁justices	-11.8357
▁0	-11.8365
▁consume	-11.8369
▁endorse	-11.8372
▁cease	-11.8372
▁Ratings	-11.8373
▁Kings	-11.8373
▁periods	-11.8374
▁Similar	-11.8377
▁ethical	-11.8378
▁absurd	-11.8379
▁nails	-11.8379
cast	-11.838
▁extensive	-11.838
▁occasional	-11.8381
▁hurts	-11.8382
▁Biopic	-11.8384
▁Czech	-11.8384
▁Dementia	-11.8384
▁Ghana	-11.8384
▁Hernandez	-11.8384
▁Oyster	-11.8384
▁allergies	-11.8384
▁currency	-11.8384
▁demographic	-11.8384
▁indigenous	-11.8384
▁skeptical	-11.8384
▁storage	-11.8384
▁Intense	-11.8384
▁shining	-11.8384
▁Jermain	-11.8384
▁jazz	-11.8384
▁Ceasefire	-11.8384
▁consecutive	-11.8384
▁Hashtag	-11.8384
▁1992	-11.8384
▁Garcia	-11.8384
▁consent	-11.8384
▁Kurds	-11.8384
▁mature	-11.8385
▁Mouse	-11.8385
▁deadliest	-11.8385
▁$10,000	-11.8385
▁vibe	-11.8385
▁Fatherhood	-11.8386
▁Hayes	-11.8386
▁differ	-11.8386
▁Danielle	-11.8388
▁Previously	-11.8388
▁Kenne	-11.8388
▁Notre	-11.8388
▁Usher	-11.8389
▁Somewhere	-11.839
▁Slide	-11.839
▁skies	-11.839
▁Reclaim	-11.8391
▁bedtime	-11.8392
▁Clerk	-11.8394
▁fields	-11.8394
▁hack	-11.8395
▁illnesses	-11.8396
▁hurting	-11.8397
▁observed	-11.8397
fra	-11.8397
▁Witch	-11.8397
▁correctly	-11.8398
▁Cubs	-11.8399
▁Charm	-11.84
▁Leaks	-11.8402
▁67	-11.8403
▁Starring	-11.8403
▁Confirmed	-11.8404
▁brighter	-11.8405
▁rocks	-11.8405
headed	-11.8407
▁Angels	-11.8408
▁substitute	-11.8409
etta	-11.8411
▁contained	-11.8418
▁Fuels	-11.842
▁Prop	-11.8423
▁supposedly	-11.8424
▁Breathing	-11.8429
▁BP	-11.8429
▁16,	-11.8431
▁texts	-11.8433
▁Hardy	-11.8435
▁Prompts	-11.8436
ama	-11.8436
▁soil	-11.844
▁hint	-11.8441
▁Hanging	-11.8442
▁combine	-11.8445
▁Wa	-11.8445
▁Closed	-11.8447
far	-11.8452
▁height	-11.8453
▁origin	-11.8455
▁statue	-11.8456
▁vow	-11.8456
▁cartoon	-11.8456
▁vitamin	-11.8457
read	-11.8458
▁rebel	-11.8459
▁fixed	-11.8459
▁deserved	-11.846
▁deficit	-11.846
▁contender	-11.846
▁psychologist	-11.846
▁suggestion	-11.8461
▁Za	-11.8465
ram	-11.8465
▁Backs	-11.8467
▁dancer	-11.847
▁Complaint	-11.8481
ash	-11.8482
wide	-11.8488
▁Billions	-11.8488
▁forth	-11.8488
▁del	-11.8489
▁71	-11.8489
▁Teenagers	-11.8496
▁Heading	-11.8496
▁Wise	-11.8497
▁demonstrations	-11.8497
▁Israelis	-11.8502
▁register	-11.8504
▁adjust	-11.8504
▁preschool	-11.8507
▁nuts	-11.851
▁Entrepreneurs	-11.851
▁Slay	-11.8517
▁Increases	-11.8518
▁Alternatives	-11.8521
▁Luck	-11.8525
Lapse	-11.8531
pen	-11.8532
graph	-11.8532
▁vacations	-11.8533
[...]
